[PAD]
[UNK]
[CLS]
[SEP]
[MASK]
の
、
に
。
は
た
を
で
と
が
し
て
な
1
れ
い
あ
)
(
さ
2
こ
も
##する
ある
か
いる
する
「
・
」
から
19
20
そ
こと
##して
ア
ま
大
や
として
3
よ
一
中
によ
なっ
その
『
れる
ら
』
日
など
##リー
ス
同
-
この
フ
4
201
出
お
だ
シ
ない
られ
行
##ール
200
発
ため
##ラン
5
後
イ
日本
##ック
##ター
第
地
あっ
以
また
##ット
自
##スト
開
作
コ
とい
##ング
マ
へ
現
時
人
最
よう
上
もの
国
オ
6
まで
カ
あり
##ート
高
なる
東
本
という
"
多
生
##ュー
サ
名
7
10
的
エ
プ
バ
##ーム
##って
##いて
全
8
##ティ
##ディ
ロ
##ント
新
##ード
当
主
ジ
これ
戦
##ライ
9
ク
事
小
前
初
メ
S
18
##かっ
受
入
ト
ド
せ
レ
##ンド
にお
A
C
パ
.
使
実
##ョン
リ
チ
199
でき
通
公
おり
特
場
設
内
キ
機
見
##00
デ
##リア
それ
により
分
,
より
部
##ース
う
)、
によって
北
ブ
結
長
M
ほ
学
記
平
##イン
対
12
ハ
##リカ
用
選
による
目
タ
経
##ーク
テ
関
ず
ウ
現在
##ける
T
)。
:
指
運
11
モ
##ップ
連
198
##er
しか
##メリカ
下
放
南
三
##ーズ
文
##ション
なり
取
B
世
者
形
呼
彼
教
数
グ
変
不
だっ
家
会
なかっ
持
##ージ
参
間
アメリカ
ミ
P
所
活
移
において
建
##大学
セ
ベ
明
代
ば
成
表
方
F
ラ
##ーン
つ
合
再
制
につ
プロ
西
なく
197
D
き
られる
元
行わ
受け
改
場合
社
##in
市
言
に対
近
##学校
す
について
その後
ポ
##バー
##an
山
有
手
##レー
##える
しかし
N
##on
化
多く
製
ダ
軍
無
政
基
支
I
水
他
できる
##ランド
決
知
二
進
昭
女
ホ
ボ
ニ
重
加
年
196
海
昭和
登
G
使用
車
神
##リス
アル
東京
##ンス
広
原
##ラー
J
放送
##研究
ソ
##ープ
付
##or
##イト
存
外
王
##リン
電
各
天
終
交
作品
##ャン
R
直
##映画
続
L
強
意
ビ
世界
引
およ
##める
正
##カー
法
当時
組
共
##レビ
相
15
存在
0
194
構
反
死
ル
##ルト
立
可
解
等
向
##ar
17
フラン
考
約
起
##ッド
W
/
金
始
収
##しい
および
##en
##番組
集
##ーマ
##ンジ
音
##イル
先
含
書
保
195
次
ヴ
呼ば
両
性
利
研究
大き
E
##ニア
総
ユ
定
16
ゲ
H
少
##シュ
優
行っ
なお
体
得
コン
残
同年
ファ
のみ
子
異
ライ
試
』(
##ステ
流
さら
理
同じ
イン
古
ナ
##シア
可能
ワ
物
予
伝
##イツ
##ャー
状
必
ガ
編
活動
##れる
発売
務
位
工
##al
系
駅
##at
以下
##ファ
ヒ
配
演
##とも
取り
##フォ
動
##鉄道
における
中心
用い
ピ
さらに
##ナー
平成
発表
安
一部
計
##ックス
##会社
キャ
乗
単
際
##リーズ
空
民
##フィ
石
地域
台
提
回
193
線
##マン
映画
完
独
いう
都
以降
調
##es
み
勝
ノ
側
増
郡
##まっ
##時代
要
開発
##ダー
##リーグ
出場
投
##ブル
男
旧
##年代
道
区
フランス
一般
大学
##かけ
時代
U
チーム
=
##ウェ
ペ
く
参加
監
ヘ
専
明治
開催
歌
##ロー
##オン
##ーズン
追
過
ドイツ
登場
##ラス
フィ
型
わ
考え
問
英
住
##ic
認
K
ひ
##レイ
利用
記録
ど
期
個
多い
O
オー
武
就
役
ニュー
にて
ケ
確
##サー
##がら
町
V
開始
だけ
信
土
192
##ギリス
以上
イギリス
##ナル
及
13
テレビ
比
##スタ
」(
##ソン
非
観
##ベル
担
周
面
翌
装
##クト
県
例
必要
攻
創
打
なら
番組
務め
シーズン
採
たち
別
思
##ニー
今
知ら
商
歴
かつ
ギ
##ょう
##ビュー
関係
頃
##ッチ
14
万
従
仕
中国
たり
選手
##ウン
位置
太
に対して
せる
に関
与
ネ
##世紀
代表
##レス
スタ
##委員
##まり
統
語
2010
行う
##ヴィ
福
引き
兵
管
任
川
##めて
朝
父
設置
影
##is
技
京
##デル
村
復
所属
様
##it
卒
##000
防
食
##ヴァ
議
##バム
描
種
出身
m
規
愛
持つ
##選手
協
ゴ
##しく
##20
##シャ
##イド
式
気
生ま
##he
##ラク
一方
低
##10
国際
白
ご
施
置
ディ
説
いく
廃
ほか
推
うち
競
路
版
資
##ともに
命
とともに
出演
##ンター
転
##ウス
獲
結果
達
##フト
修
音楽
影響
これら
100
失
飛
号
科
##わっ
変更
##パー
2007
ヨ
##ンタ
企
##la
2008
問題
松
特に
そして
監督
ただ
とき
2009
艦
卒業
2011
ジャ
野
##アル
船
異な
十
果
##km
最初
2012
獲得
優勝
美
30
ち
横
##った
タイ
首
建設
t
同様
評
ながら
示
当初
条
##スター
##ループ
##le
江
四
##ジア
楽
##情報
大会
シリーズ
##ータ
報
##ンバー
半
担当
-1
設立
展
##コン
##衆国
在
##ーツ
社会
青
判
事業
##ーション
##日本
及び
##ングル
##ールド
でも
意味
千
女性
自身
##販売
領
航
曲
2013
2006
派
感
木
##アン
##フェ
ので
親
s
2014
##ラム
接
米
##15
毎
##イス
##ぞれ
それぞれ
スト
##ジオ
とも
クラ
##ネル
以外
点
##キー
2015
スペ
消
##ロン
破
島
複
都市
末
退
属
##合衆国
伴
ウィ
一つ
##共に
##わり
##11
左
真
2016
##ion
計画
と共に
##30
権
##ro
アメリカ合衆国
業
州
大阪
##12
敗
宮
自分
アン
母
陸
ものの
または
中央
攻撃
##re
2017
こう
かつて
##スク
##ーロ
##ステム
農
##ころ
f
何
##14
就任
限
ゲーム
##主義
サン
帰
店
検
##リング
赤
にかけ
##上げ
話
ジョ
通り
販売
伊
構成
##株式
発生
##契約
##わせ
##レン
著
##ジェ
c
渡
ジェ
離
和
##18
2000
フォ
##ッカー
司
##カル
ほど
にかけて
最も
未
2005
採用
警
!
果た
##ラマ
着
##17
情報
##ニメ
挙
##テン
図
##19
2018
継
##16
落
フェ
##リスト
遺
##放送
)」
##el
##ルス
医
応
深
##25
しま
超
若
城
地区
##んど
力
風
与え
生まれ
に対する
ただし
ところ
守
黒
チャ
人口
収録
導
最後
試合
政治
起こ
##ーター
##13
送
歴史
列
部分
地方
団
製造
論
に関する
場所
短
路線
コー
##デン
ロシア
始め
鉄道
制作
##時間
最終
状態
")
ラン
##エル
##帝国
##ンガ
準
##メント
好
宇
文化
##as
##ンク
全て
心
技術
被
##シー
##ビー
向け
べ
将
サー
大きな
##イク
といった
馬
##us
##がっ
##タリア
公開
売
ヤ
悪
決定
高い
整
そこ
目的
切
初めて
右
病
##21
シングル
25
輸
使わ
デビュー
##試合
常
##ol
学校
アルバム
##am
旅
教育
##バス
ツ
受賞
負
光
##株式会社
細
至
画
産
ブラ
##ショ
実施
##戦争
##22
火
搭
##ッシュ
史
早
契約
続け
機能
##リース
##ートル
八
190
##プロ
##29
2004
##ケット
佐
##たる
博
時間
##ッパ
アー
除
##23
殺
来
挙げ
急
経済
注
##27
普
〜
##et
##ない
五
諸
身
頭
d
全国
##24
活躍
##テレビ
##il
田
ほと
職
拡
##ザー
率
読
##28
月
処
2019
標
##ンジン
##26
##世界
委員
##なく
ほとんど
含む
聖
発見
##ラクター
イタリア
##動車
いっ
##ジャ
50
植
対応
補
違
##ンチ
重要
~
グループ
精
最大
じ
##ッツ
ホーム
生産
類
ステ
入り
持っ
##om
度
##アー
##ac
芸
##和国
高校
終了
##等学校
##ンダ
持ち
求
舞
同時
走
##学部
以前
江戸
##ビス
私
##ou
成功
組織
加え
述
京都
局
掲
実際
減
助
花
##ing
##ビア
通常
師
スポ
河
ふ
突
延
降
講
環
車両
##出し
製作
独立
戻
出来
##リオ
アイ
秋
名称
設定
群
基本
満
航空
メンバー
称
##チャ
いわ
清
豊
劇
義
沿
搭載
モデル
##ディア
ゆ
システム
##テル
声
賞
ブル
設計
b
事件
##イトル
名前
様々
ウェ
ザ
##らか
適
隊
##付け
##わる
189
##31
オリ
占
異なる
寄
視
富
勝利
副
会社
吉
述べ
##ティー
調査
再び
##漫画
彼女
営
2003
##いは
##海道
000
リリース
に対し
ここ
p
程
特徴
内容
並
停
##ーロッパ
色
認め
o
時期
運営
移籍
##クション
自由
##イヤ
指定
校
由
##たり
更
室
##タン
戦闘
最高
大きく
作曲
公式
##リック
ヴァ
新た
銀
導入
##コー
順
##かり
ム
良
構造
指揮
治
人間
バス
官
皇
ベル
本作
##年度
アニメ
シャ
岩
差
宗
チェ
廃止
特別
##チェ
あるいは
すべ
##ch
理由
御
##ザイン
部隊
しまう
##共和国
執
##イズ
時点
管理
振
混
188
姿
昇
初期
リー
運行
タイトル
級
夏
2002
たい
すべて
遠
##タル
24
##ヴェ
よる
結婚
##マー
果たし
評価
効
兄
量
背
生活
40
課
藤
X
##ギー
人物
##ピック
マル
##労働
ヴィ
("
扱
国内
1990
政府
周辺
##ーカー
##バル
品
スー
九
全体
対象
経営
非常
予定
財
スター
入っ
-2
はじ
批
口
砲
完全
能
指導
英語
##サン
##モン
韓
##裁判
シュ
施設
多数
積
##ゅう
##ため
##ゲーム
極
##入れ
##ニング
訪
教授
##年間
のち
段
##ュージ
h
リーグ
ショ
出版
##キング
2001
番
敵
##セン
証
迎
提供
ん
宣
##ウィ
##統領
展開
##選挙
##リンピック
足
キャラクター
株式会社
##ロス
彼ら
##ルフ
##ボール
##選手権
企業
方法
同時に
駆
東京都
ヨーロッパ
写
##and
専門
187
オースト
以来
春
##えば
橋
主張
捕
速
##ミー
行い
大正
##ディング
撮
含ま
死去
##政府
##大戦
固
逃
徳
ほぼ
もっ
##プリ
##ネット
飛行
##ed
兼
造
基づ
自ら
歩
21
比較
##ッグ
##丁目
##議員
##ウム
列車
##まる
Y
休
国家
夫
完成
そのため
関連
小さ
娘
甲
その他
け
for
##ヨーク
言わ
##ずれ
1980
円
逆
編成
##クス
ひと
割
エンジン
##タイ
星
ロー
##距離
##ter
##候補
軽
寺
表記
人気
難
結成
舞台
形式
脱
由来
_
許
救
##ra
##クラ
ニューヨーク
共同
支配
##議会
機関
夜
##ッジ
興
##ig
閉
参照
##機関
一人
データ
熱
変化
##わら
いずれ
バンド
仮
##けれ
00
##つか
スペイン
of
伴い
項
もと
対戦
程度
表現
##野球
運転
インド
'
藩
弾
球
北海道
##大会
韓国
香
留
屋
紀
門
形成
岡
よく
操
記念
ジョン
備
クラブ
##スコ
既
息
途
座
べき
##高等学校
##ダル
容
森
激
断
1999
インター
子供
新しい
##id
探
支援
妻
マイ
女子
複数
状況
##じる
186
爆
デザイン
##ぶり
余
幕
##os
付け
選出
JR
そう
##ジー
営業
演奏
組み
発展
##ルド
環境
##キャ
氏
##un
まま
##次世界
##次世界大戦
永
##学者
り
##ation
危
幼
続い
運動
薬
##プト
では
##ミュ
整備
サービス
##ベント
移動
自然
##カップ
え
##ent
ローマ
客
国民
撮影
主要
絵
絶
弟
発行
育
人々
打ち
##コード
建築
供
##ントン
買
戦い
雑
1970
第一
掲載
ユニ
##代表
勢
選挙
23
##ウンド
##50
##ow
アナ
レー
##リエ
海軍
はじめ
養
##ブラ
”
道路
巡
強い
第二
乗り
貴
プレイ
##なっ
##ルム
経験
しまっ
なけれ
沖
企画
脚
付近
盛
##古屋
可能性
街
近く
ハイ
支持
フリー
友
区間
宇宙
ヶ
以後
##ーナ
##たち
成立
1998
為
##ジャー
奪
ジャン
根
温
圧
連続
##らし
運用
##パン
##キシ
居
静
有名
n
##ジュ
到
禁
しば
引退
戦争
招
党
##ガー
##込み
##ンドン
男性
##トル
##込ん
言葉
##ワー
ソフト
どう
報告
俳
アレ
翌年
##ot
巨
批判
よれ
スポーツ
入れ
St
撤
期間
輸送
映
料
##ER
血
反対
方面
##務所
騎
60
個人
決勝
##げる
プレー
枠
##mu
ジュ
工場
息子
##デュー
登録
紹
依
分類
合併
総合
侵
22
境
年間
##ad
##ロック
The
六
##ギュ
相手
レース
合わせ
サッカー
##なわ
唯
ユー
越
平均
広島
##シン
を通
ラジオ
仲
入る
拠
カル
現代
百
1997
団体
記述
##活動
確認
アク
聞
##ダム
##ッセ
率い
にと
地元
復帰
1996
併
行動
立ち
トン
##od
行政
##AN
&
##曜日
黄
##ズム
##込ま
にとって
マー
使っ
同じく
正式
かか
労働
設け
##ur
漫画
ごと
直接
暗
紹介
臨
鉄
追加
小説
##シャル
トラ
##ウェー
##規模
制度
1994
過去
拡大
連載
1995
カー
陸軍
辞
楽曲
見せ
作ら
朝鮮
##iv
しよ
##なり
大統領
開業
例えば
##FC
隣
##ティング
潜
繰
イス
南部
含め
字
##イア
初代
迎え
素
ライブ
受ける
欧
やす
警察
遊
a
教会
幅
増加
部門
##こう
働
能力
##ニュー
主人
魔
##mula
唯一
バー
抗
プラ
##地方
イベント
パー
方式
##ジナル
##ガン
formula
##ブルク
かけ
##ルー
流れ
選ば
1960
印
週
示す
条件
む
連合
欠
##シリーズ
“
久
傾
プレ
尾
##まま
##センター
事実
the
トップ
裏
##ネス
地球
CD
##から
オープ
繰り
格
グラ
苦
##ちら
求め
に関して
##um
審
ネット
作戦
##シェ
装備
宝
500
名古屋
##した
##ストン
26
出し
排
カナ
近い
敗れ
パリ
写真
巻
概
センター
##イント
近年
表示
土地
交通
ロンドン
詳
##教育
従来
模
つつ
オリジナル
製品
##ウト
取得
仕事
小学校
ドラ
メートル
明らか
##フリカ
スーパー
学生
軍事
効果
押
##法人
規定
目指
仏
詩
1991
いくつか
NH
にわ
値
授
途中
##ec
故
ビル
##ライン
##im
28
残し
km
価
弁
厳
キャン
鳥
鹿
##がる
試験
説明
言う
##ヤー
##掛け
##レーション
##ークス
角
志
##ir
##らく
編集
向か
##BS
撃
1993
##んな
亡
27
勤
##議院
ミュージ
め
##ゆる
1992
##st
貢
ヴェ
##事件
##太郎
ファン
##チュ
抜
源
台湾
示し
カリ
協力
将軍
##ルク
大型
##デオ
##ールズ
俳優
指摘
動物
戦後
誘
クロ
申
主人公
ね
冷
##イオ
##em
ウォ
福岡
熊
ドル
言語
祭
横浜
至る
隠
##IN
自動車
一時
>
七
丸
モン
描か
クラス
購
##クター
つけ
呼び
定義
進出
##ジェクト
離れ
##ピー
##替え
にあ
成績
阿
ひとつ
特定
##委員会
方向
プログ
観光
暴
配置
慶
##ッション
In
業務
自治
損
館
ター
##誕生
そのまま
襲
駐
##カン
##ラル
似
分野
映像
##ON
便
##がり
電気
##書館
統合
##バイ
犯
建物
NHK
略
店舗
##セス
創設
1989
派遣
片
もう
文字
案
刊
それら
専用
##ランダ
##ブリ
##ウェア
##アルバム
##ゲン
物語
魚
##AR
アジア
スコ
少なく
家族
装置
質
隻
##障害
##ドル
同社
遅
地上
##ドラマ
独自
ドラマ
所有
誕生
##なる
承
した
密
##オリンピック
維
##ポート
##ゴン
##大臣
日本語
漢
焼
務める
ティ
燃
##革命
待
##天皇
跡
千葉
張
##ウル
携
チャン
即
##リーン
##ia
地下
##かし
普通
切り
Z
貢献
ポー
帯
残っ
##公園
シェ
祖
被害
##サイト
##海軍
ハー
決め
##メージ
つい
北部
ゼ
##リティ
##AS
80
国道
進め
##リート
江戸時代
委員会
描い
##中学校
倒
恐
##トロ
達成
米国
##cm
加入
築
なか
続く
##ラリア
##ピュー
##ランス
科学
##BC
住民
外国
くる
博士
実現
拠点
比べ
70
ピア
協会
原作
カン
日本国
塩
ソ連
1987
端
##トラ
族
挑
困
選択
記載
阪
##ut
##平洋
##ーリー
##ビル
抑
池
裁判
置か
貨
抱
原因
第二次世界大戦
健
思い
##ファー
吸
王座
##川県
+
忠
伝統
##メン
-3
##FA
##道路
購入
##シング
フロ
保護
呼ぶ
没
→
植物
シン
系統
##エン
防衛
あまり
##調査
メイン
美術
1988
エル
カナダ
器
譲
標準
追い
工事
テーマ
破壊
クレ
返
伯
すぐ
##バート
プロデュー
ます
刑
ボー
##イロ
##神社
配信
死亡
会長
広く
##パス
##キュ
##合わせ
高速
##ピオン
元年
##スタン
敷
##協会
ギリ
階
35
エン
イング
伝え
双
通信
##ag
##文化
フレ
冬
アラ
ロック
##ウォ
オランダ
伸
サイ
スク
役割
高く
ベース
##新聞
##軌道
1986
減少
1985
疑
海外
距離
参戦
##VD
##締役
集め
雑誌
##じて
紀元
##教授
移転
語っ
違い
##銀行
##ハン
民主
自体
競技
本社
##ルコ
商品
核
##oc
費
結ぶ
不明
法律
##チャン
きっ
定め
##リアム
芸術
##万人
失敗
##AT
各地
接続
##ッケ
生き
作成
奥
題
作り
バージ
射
毎年
荒
電子
毛
29
##せる
行き
直後
老
作業
宗教
精神
勢力
ベスト
##惑星
##都市
入学
埋
港
湖
紙
仙
始まっ
##オー
1950
##範囲
##たって
井
Ch
マン
アド
古代
##開発
収め
恋
##レット
代わり
##ガル
指す
日本の
羽
共通
産業
##塁打
<
争
##会議
相当
免
児
自動
怪
中華
思わ
書か
##王国
刊行
##ay
作家
しばし
k
終わっ
ジョージ
オーストラリア
栄
誌
維持
劇場
踏
社長
成長
in
午
葉
包
板
司令
##ッカ
##合い
要求
##ul
浅
なさ
g
崩
浮
誤
##レート
45
員
草
形態
避
##ワーク
ヶ月
候補
後半
関東
得る
砂
##グラ
要素
生まれる
段階
史上
細胞
頼
録
##ネルギー
告
事故
フル
##しくは
DVD
封
市民
飲
##レード
II
国立
##ディー
しばしば
w
訴
1984
護
少年
いい
##自動車
##ジョン
統一
そこで
架
##ジョ
##ピン
v
キリスト
男子
##さん
90
公演
主演
向上
用いる
起き
顔
##返し
書き
簡
##マス
名誉
政権
限り
1983
病院
酒
紀元前
##ヴォ
36
##ずか
訓
墓
カード
1945
##ミア
記事
内部
更に
否
機体
ヒット
継続
##チーム
##ダヤ
戸
改造
見る
##スティ
欧州
##ri
谷
報道
イングランド
185
##ワード
基礎
会議
##アップ
愛知
184
タイプ
宿
望
陣
昇格
ポーランド
秘
指名
##連邦
波
レギュ
酸
##グループ
具
あれ
##メラ
実験
建て
##関係
ブランド
層
政策
##つけ
安全
対立
沖縄
##ビン
野球
##ダン
生物
折
制御
##ピュータ
寛
銃
スカ
九州
憲
議員
バイ
クリス
##出す
コミ
判断
提案
立て
中学校
##とめ
おら
限定
##らい
##万円
首都
前後
食べ
##OR
備え
上げ
経由
1982
幹
陥
セル
##サル
竹
分か
##イム
スタジオ
練
##フォル
1972
##責任
仕様
メジャー
骨
拒
工業
##ホール
日本人
##トン
##教会
##ロード
衝
##ap
衛
上記
##ST
##作品
東北
##人民
防御
君
##運動
##トゥ
##年ぶり
弱
もしくは
坂
##ショナル
新潟
レベル
主催
ちな
復活
展示
##ースト
玉
新聞
現役
##カード
大規模
比較的
面積
少ない
##フォン
##ログ
歌手
ざ
牧
鎮
商業
脚本
貴族
##アメリカ
An
さん
理論
原子
無い
メーカー
林
太陽
市場
1981
使う
既に
開幕
到着
ユダヤ
起用
縁
ハン
300
強く
観測
##市立
ステージ
医療
詳細
孫
強化
##ard
置く
動き
勝ち
緑
触
最終的
##監督
スタート
バル
本来
反応
わずか
不可
ゴール
##ーフ
継承
1979
##アイ
レギュラー
e
命令
発足
競走
内閣
読み
姉
##メートル
##カデ
意見
##ジル
まだ
困難
向かっ
##クロ
を通じて
プロジェクト
理事
##込む
厚
##ルツ
帰国
建造
##施設
##物館
女優
父親
1973
##代目
議会
です
集団
有する
##交通
##島県
i
院
住宅
##ers
吹
注目
所在
津
分離
書い
神戸
関西
きっかけ
1975
##ゃん
コーナー
改称
ワールド
分け
バラ
##小学校
1978
安定
治療
自己
##トリック
李
小さな
制限
生徒
禁止
##科学
##逮捕
地名
神奈
鈴
すれ
任命
公園
連邦
IC
こうした
衆
##ナム
38
通過
旗
付き
##og
##ッフ
単位
##ッサ
##づけ
コース
近代
異なり
イメージ
##ie
処理
オープン
ダイ
長い
西部
##ノー
##ジタル
##th
##AM
..
だが
##op
##ミン
##経済
##ベルク
夢
##埼玉
言い
1968
樹
著作
二人
供給
市内
##音楽
占領
太平洋
翻
刺
##続き
合計
兄弟
予選
##mm
プログラム
みな
任務
解散
農業
##システム
属する
ルー
亜
希
##スカ
##ツィ
##ボー
##理学
麻
CM
皮
##ニック
アンド
後継
ポイント
全く
沈
おお
規模
領域
##IC
止
...
##ッキ
さま
小型
##40
##議院議員
操作
フィリ
入団
##航空
ウィリアム
帝国
本人
##ミュニ
##ce
##切り
いわゆる
##もの
応じ
現れ
確保
1976
逮捕
延長
速度
狭
タン
文学
制定
##レンジ
南北
起こし
##ニア州
オール
訪れ
充
行為
普及
交換
得点
大量
つく
静岡
##ルン
もた
つな
1969
l
域
特殊
軸
散
##列車
1974
33
わけ
言っ
##ボン
トリ
全日本
##立て
##レント
##アニメ
材
##空港
地位
開設
選手権
節
##社会
省
メディア
32
##なわち
すなわち
鎌
FI
挑戦
ツアー
##セル
##工業
##ov
繁
##でも
介
1971
##ライト
180
命名
車体
##入り
進ん
首相
?
埼玉
##事業
##年後
服
まず
因
##ーニ
奈
##周年
移行
##チン
フジ
マイル
隣接
##ミング
窓
判定
」)
置き
##EC
##の戦
##諸島
傾向
本部
Q
資料
オーストリア
危険
37
民族
功
保存
##ジン
##連合
パラ
目標
勤務
セント
結ん
駆逐
##競技
民間
患
##AC
測
前年
実行
機械
##ハー
ライン
##文字
艦隊
##ind
55
たら
##ub
訓練
ずつ
登板
連絡
##ak
オス
落ち
互
飾
基本的
##かい
師団
##ナイ
ぶ
士
プリ
後述
演じ
始める
残り
しょう
##バン
感じ
概念
界
##国際
##フレ
範囲
後期
##年生
先発
戻っ
どの
資金
##ながら
##av
作っ
##キシコ
##ライナ
投票
大学院
向かう
今日
更新
交流
期待
##メダル
宣言
殺害
##OS
耐
##ーゼ
ルート
##kg
周囲
演出
##の戦い
名乗
ブラジル
エネルギー
フラ
リン
推進
##BA
軌道
使い
やすい
##度目
レイ
立場
奉
劉
肉
##イドル
系列
アフリカ
鉱
##ウェーデン
大阪府
##ワールド
##換え
出来る
漁
##ジアム
1965
×
##とう
桜
交渉
にも
撤退
ピアノ
##est
48
会員
通称
イスラ
##ab
前作
##郵便
兵庫
##シティ
※
締
性能
区別
通算
##マーク
スウェーデン
公立
売り
and
##ペン
##山県
始まり
##ザン
検討
塗
札
##半島
1967
浜
##おり
##出さ
中学
種類
行く
シーン
壁
加盟
長野
一定
執筆
進学
停止
山口
長男
目指し
ニュース
奇
受けて
適用
##マル
##ざま
FC
##カデミー
1977
せん
振り
東部
前述
カリフォル
牛
矢
一覧
本名
本格
哲
景
##文学
かなり
##タウン
1000
属し
推定
改良
合流
##ケーション
想
歴任
与える
##民主
天皇
編入
認定
除く
多かっ
繋
##サス
率いる
インディ
##計画
計算
長崎
溶
34
在籍
味
##ine
交差
勧
出会
秀
援
##オブ
##ラント
##ドリ
##ッキー
##NA
基準
純
de
##ウンサー
犬
番号
皇帝
プレイヤー
##がて
キー
消費
-4
やがて
400
ギャ
##シャー
借
##キン
##ペラ
ゲスト
##プレ
納
##ニス
##ロール
盗
生じ
愛知県
事務
1944
ソロ
徐
柔
富士
1940
削
##ガス
施行
##ウェイ
網
討
##ist
エド
ブリ
ルイ
インターネット
捜
古い
1964
ドライ
歯
##OM
暮
##フォード
##城県
結局
作詞
空港
ノー
藩主
微
すで
スパ
引き継
喜
##AL
##EN
仙台
果たす
1966
##競馬
児童
押し
管轄
中継
作る
分布
バージョン
##アス
中止
持た
良い
あら
解説
幾
##ーブ
家庭
##シャン
キリスト教
ユニット
##IS
##ーリ
体制
クリ
市立
##ンサー
扱い
鹿児
定期
形状
植民
大きい
枚
アト
徳川
権利
当選
31
再開
化学
自治体
トゥ
沿い
研究所
訳
出力
命じ
結び
##ティスト
メキシコ
なし
低い
発言
長期
##岐阜
##igh
本拠
プロ野球
ホテル
呼称
蒸
亡く
球団
進行
##ストラ
スタイル
コンピュータ
##ビエ
準備
固定
マイク
組み合わせ
直前
伴う
喫
大半
インタ
龍
鎌倉
1963
##披露
試み
##ill
覚
エレ
症
PC
思想
ぬ
好き
##イルランド
習
単独
##ラスト
##中央
章
友人
同盟
1930
ストーリー
摂
##自治
表す
表明
マーク
##やか
理解
さまざま
仲間
貨物
アマ
設備
唐
##ーラ
回転
増え
ダウン
##貿易
あたる
つまり
給
誰
とり
投手
高さ
銅
対策
ビデオ
郷
低下
##サッカー
衣
##ct
##決勝
抵
ゾ
長さ
##人民共和国
提出
始まる
乗車
新設
冠
だろ
潜水
デジタル
像
出る
議論
委
各種
##山市
傘
武器
政治家
囲
##らす
US
過ぎ
往
地点
液
ほう
##回戦
主題
##ーンズ
視聴
稲
##かる
開通
ランキング
##ポン
ライト
スタッフ
##サート
乱
カール
夕
##ノン
否定
必ず
練習
許可
障害
##60
狙
##ゴル
基づく
##48
我
Al
巨大
有し
無く
責任
電車
料理
##産党
レコード
マク
生息
象
顧
とっ
##デス
依頼
部長
##チャー
原則
覆
##か月
陸上
アップ
雪
幸
##くり
##トリ
##オフ
基づい
スピ
1962
##eb
反乱
TBS
事務所
拡張
背景
至っ
手法
積極
##サイ
表面
銀行
ラテン
スコット
神奈川県
##HE
##種類
IS
ペン
弁護
空間
快
華
##企業
支払
ダイヤ
大幅
神社
認識
##リアン
ケース
剣
##衛隊
ヴォ
##ランプリ
##ess
##務省
##レース
##ーマン
秋田
録音
一般的
##アジア
熊本
かかわら
炭
##勝ち
ワン
ファイ
次第
ぎ
現地
##いに
##プラ
初頭
##ソフト
##ンタル
パート
スケ
雨
1946
頻
前身
国鉄
憲法
文書
図書館
##ケル
エピ
##シック
##ドゥ
!」
##シントン
##組み
コミュニ
##ーネ
歩兵
奈良
置い
考える
届
阪神
r
岐阜
平方
手が
##裁判所
翻訳
ハード
##ラブ
##勢調査
上位
修道
香港
布
限ら
1947
茶
改善
有効
負傷
十分
意識
生成
飛び
##ゼルス
##ud
満た
##ッピ
承認
1961
北西
旅客
資格
迫
テキ
全員
織
##シル
##衛門
ニコ
相互
##フラン
パン
回復
注意
聴
ヘン
どちら
コーチ
請
ノル
ばかり
##通り
南西
##サイル
求める
##シス
母親
方針
調整
1941
渋
入社
##ルタ
##優勝
披露
統治
過ご
##取り
サイト
##テナ
##ターン
##がっこう
(「
古く
##セント
##ティン
兵庫県
1943
帝
元々
英国
起こっ
フジテレビ
残さ
用意
患者
打率
称し
##ok
霊
##小説
過程
##リコ
堀
毎日
フランク
健康
基地
学ん
高度
##AP
##日間
停車
ブラック
テレビドラマ
TO
性格
洋
照
##問題
緊
))
やや
呼ん
1942
##地域
##条約
##35
陽
##ソング
1920
##ッハ
改正
1959
–
席
##イング
ミニ
移住
##ティア
北東
変え
すでに
額
ポルト
学者
対抗
75
叙
確立
祝
診
39
中間
まとめ
タイム
擁
名義
アレク
##ニュ
失っ
##ティブ
すぎ
海岸
オリンピック
又
貸
にわたって
薄
改革
連れ
条約
通っ
179
氷
アイルランド
##スポ
濃
脳
##ik
税
初め
乾
吸収
発電
高等学校
##ゼン
##ant
燃料
達し
##シュタ
看
##ピア
##組合
##art
三菱
ハンガ
バック
##io
トロ
##.5
br
答
##部分
分割
機構
##ティック
アリ
護衛
1948
##んじ
公共
モード
洗
##ブン
##劇場
ごろ
価格
拒否
まし
結合
プロデューサー
同士
死後
##シップ
サポート
##タイム
##ハウス
##80
初回
1949
##ell
論文
令
天文
ギリシャ
あげ
上昇
不足
巻き
競馬
##チョ
せい
傘下
発射
高等
##ーブル
##ob
##all
遺伝
去
##産業
もら
モスク
埼玉県
エア
優れ
解決
アーティスト
1955
##ice
たと
買収
走行
連隊
伊勢
園
豪
##チェンジ
ダム
守備
抵抗
東海
##チュー
長く
54
もつ
外交
審査
発達
恒
飼
声優
終え
小学
侵攻
投入
1954
1958
ころ
##ジプト
##up
"(
少女
知っ
送り
##本線
珍
兵士
画面
西側
##学院
AT
##チュア
滅
札幌
##ベルト
贈
趣
取っ
左右
開か
促
かい
##VE
##起こ
丘
##ッテ
航空機
##エンジン
分析
超え
鈴木
##ソード
##ip
##プレイ
150
##レーター
尊
全米
教え
卒業後
##プル
毎週
##団体
末期
##コミ
##ナン
金属
仁
""
に際
##ビエト
ネットワーク
##回目
65
東西
見える
##フル
##発電
ワシントン
チャンピオン
策
に従
カトリック
##デー
1956
陰
中世
##バンド
ベルリン
デュ
°
だい
具体
常に
終わり
コンサート
府
箇
##田市
個体
名付け
1952
チャート
証明
ヒト
投げ
トラック
冒
##っと
保有
事実上
##番号
居住
##ッター
エリア
挟
従事
##ンダム
ぐ
滑
側面
後に
阻
##レル
強制
有力
恵
作用
筋
顕
芸能
##ボット
##ームズ
受け入れ
残る
SP
マネ
ユダヤ人
弘
送っ
##サンゼルス
世帯
会場
##リュー
姓
スマ
アナウンサー
雇
##東京
ロサンゼルス
##AD
##ワイ
##ドイツ
同一
改名
指導者
##ows
##朝鮮
##週間
あたり
奏
伝説
しまい
##知事
(『
信号
平和
44
消滅
解釈
ハンガリー
尽
あと
続ける
##連続
Re
TV
##if
筆
##ッタ
##連盟
##トナム
上映
田中
##デビュー
1951
取り上げ
x
アシ
医師
そのもの
募
嫌
思っ
機会
集落
大部分
##qu
##ども
〈
露
様子
講師
ST
話し
〉
境界
##一郎
##モンド
スイス
インタビュー
記さ
動作
朝日
##ボード
##取締役
フィン
超える
にあたる
イラスト
努
次第に
1953
##得点
閉鎖
正確
##レッジ
信仰
同日
Wind
湯
執行
##研究所
流れる
浦
盤
多様
希望
誇
##ワン
係
判明
アイドル
ブロック
##ge
##エス
ヘル
64
##リーム
中華人民共和国
##ミニ
##電話
合格
携帯
##リーナ
奴
##キア
47
GP
中村
創業
##ウント
ルール
べく
電力
電話
キング
植民地
##ジション
竜
##民党
収容
自宅
##RE
卵
600
##37
##nd
油
鶴
規制
##ヌス
##ヘン
実質
構想
##コール
シンガ
エピソード
デイ
ビジ
##セット
幕府
##民国
実業
改修
要請
##-1
##幹線
装甲
デン
楽し
現実
##ワイト
およそ
##ろし
99
差し
集中
##レーキ
千葉県
研究者
ソビエト
ポルトガル
縮
##次郎
機動
ホール
バン
渡り
##34
##ろう
両者
箱
エリ
北京
進む
遺跡
礼
融
輝
金融
民主党
##ミュージ
湾
st
一緒
藤原
コント
呉
輪
こそ
オル
スキ
輸入
##ヴァン
ページ
偽
##せん
##警察
価値
セット
1939
1957
58
広告
罪
空気
カップ
ガス
前半
緩
コロ
二つ
両方
指示
複雑
もっとも
Ar
シー
##ウッド
##たっ
##栽培
共に
旅行
機器
逃げ
##チス
ぶり
大陸
渡っ
株
伸び
##スキー
稼
貧
共演
ソフトウェア
知識
描く
略称
箇所
話題
飯
出現
南東
柳
賛
##管理
引き続き
部屋
作曲家
を通して
##ET
早く
年齢
昇進
]
##かん
##とし
性質
物質
一族
学会
容易
将来
滞
オブ
海上
##団法人
国勢調査
分子
重ね
徐々
興行
##クラブ
レッド
いき
天正
コード
働き
割り
臨時
##記念
##ort
危機
合成
寺院
用語
カメラ
##ルズ
オン
遭
##バラ
##女子
##ちゃん
グリ
出さ
現存
続き
衝突
2020
)』
国境
不可能
梅
各国
戦死
描写
ポール
博物館
知り
財政
##36
キャリア
##部隊
分かれ
闘
##人物
出す
妹
悲
遂
##ミス
##38
沿岸
混乱
陳
吉田
##たい
サラ
無料
しかしながら
犯罪
##クソン
##ルトン
情
歌詞
イスラエル
類似
日本国内
崩壊
あい
いち
とど
なん
育成
雲
けん
よい
扱う
杉
戦略
カバー
##32
##39
##ive
山本
著名
硬
茨
##ドラ
翌日
署
保守
嘉
おこ
売却
Pro
床
##モリ
##ーグ
##年目
画家
##ブレ
ょう
深夜
申し
ロバート
##ph
##テム
再建
国王
##ハイ
##マイ
しん
佐藤
場面
瀬
下記
サウンド
トンネル
寝
新人
1936
##プス
ウク
授与
極めて
悪化
挿
46
56
主力
学び
王者
堂
菊
貫
頂
三重
明確
若い
著書
トルコ
##転車
##エスト
コンビ
エジプト
即位
放射
活用
考慮
ちょう
ギター
善
177
178
紅
##美術
##モデル
##ich
##our
シカ
ダブル
##ew
腹
蔵
57
課程
##もなく
800
筑
騒
敗北
県道
##ベット
エイ
##クトル
##テスト
征
スペース
##IT
##朝日
愛称
現象
THE
##ントリー
ミュージック
うえ
繰り返し
スペシャル
Windows
PS
留学
郵便
改め
盛ん
興味
塔
##立つ
予備
数多
敷地
本拠地
慣
一番
惑星
上陸
栽培
##パーク
アプリ
フォー
交差点
グリーン
##ID
雄
合意
##ゴール
ぜ
##ate
事態
河川
済
##三郎
中部
##アンド
ユーザー
##年連続
衰
##大陸
49
磁
腕
おか
##ッコ
##通信
モスクワ
願
そんな
移り
ロード
アクセス
[
創立
軍人
関与
ヌ
##事故
##震災
##ord
区域
最優
Sh
クー
占め
観客
革命
##フィア
ウェブ
輸出
1937
勇
アウ
ダン
保持
##事務所
イオン
翼
re
見え
##II
##スペ
##ity
いか
##ヴァー
##アフリカ
縦
投資
##レンス
##ダクション
カラ
義務
関心
潜水艦
##ニン
再生
負け
##セプト
傷
』)
##レコード
序
一種
解体
##立っ
サブ
##大統領
##ソナ
##ian
子孫
解放
身体
##ポール
弁護士
少し
故障
FIFA
##学園
不安
##イヤー
##ジャン
##ran
川崎
##ight
ジュニア
##ベン
青森
##バック
##ベース
テスト
防御率
かも
記者
異なっ
オーディ
知る
遅れ
##バーグ
##ルター
和歌
##ne
鳴
第三
連結
亀
やり
業界
構築
ジャー
控
取引
市街
里
コレ
ウクライナ
シナ
半ば
大字
戦国
遠征
クライ
大分
幅広
魔法
サイズ
ドラフト
東京大学
1938
##チア
創刊
起源
除い
##ジット
##テイン
倉
##億円
##生活
付属
戦車
##ファイ
トレー
赴
##けん
##てる
出走
95
検査
次い
##ミュージック
##総合
##艦隊
スロ
流行
典
はず
称さ
##フォーマ
##ッズ
助け
午前
感染
##ンスター
払
両親
住ん
アカデミー
笑
貞
転換
重量
国会
弟子
儀
芝
##取っ
ナイ
ハリ
学科
Com
##市内
予想
記し
象徴
目指す
晩
先行
温泉
勃
いつ
とう
訪問
費用
資本
駅舎
ダンス
怒
胸
争い
共和
午後
平安
歴代
ビジネス
在学
東側
爆発
##カス
手段
##リウス
##OC
僧
庭
鬼
De
Th
地震
王国
静岡県
徴
脅
とおり
スコットランド
学習
昼
毒
Sp
特急
発着
襲撃
世界選手権
扉
##やし
激しい
懸
葬
##ミナル
##かさ
##end
医学
青年
Mar
変わっ
殿
キロ
掛け
高橋
最優秀
ベトナム
##ルマ
##政治
##限定
オフ
守護
諸国
##しも
伊藤
##センス
##33
尚
北側
完了
締結
日本軍
ズ
穴
武装
沿っ
重視
件
彫
眼
##政策
:"
SS
修正
放映
見つ
##ともと
##イロット
もともと
モノ
補助
カラー
取締役
##分け
貿易
カリフォルニア州
意図
##大阪
外部
##ローマ
##ect
半分
議席
120
小さい
アクション
ポジション
痛
中期
##オス
恐れ
集合
○
##ンズ
人工
信頼
買い
##ラジオ
駆逐艦
##島市
かん
出馬
単純
守る
長野県
85
週刊
##図書館
##ドロ
##物語
いた
教師
##ネーム
1931
取り入れ
票
荷
42
パス
統計
トラン
職員
項目
##ンドル
準決勝
##長官
まさ
松本
Le
Un
ロケット
古典
捜査
推薦
かかる
政党
##ウルス
##リズム
サッカー選手
##one
クロス
##スタント
1933
下部
暗殺
##メディ
進み
##九州
手紙
言及
日本テレビ
モー
予算
##UR
ぼ
岸
##よう
59
規格
冊
文献
##ケート
##需要
コロン
ブルー
プロデュース
##ES
驚
再度
処分
短期
記憶
浴
演劇
神経
##フィック
1932
##病院
AA
住む
大和
養子
シカゴ
##ーナメント
アメリカ軍
壊
病気
リング
##OL
び
徹
仏教
参謀
塁打
プロレス
モンゴル
附
41
定着
戻り
ちなみ
!!
むら
ナポ
打撃
修了
単に
##クール
代表取締役
噴
玄
##少年
ファミ
数多く
武田
オート
##フィールド
自転車
フランス語
##保険
##終了
武蔵
許さ
東日本
##ソー
##ッス
ゆう
生み
##ージェ
##フォーム
フィリピン
模様
蒸気
##組織
##高速
ペル
棟
数学
生涯
ゅう
来日
ボール
レーベル
随
ラグ
取材
東洋
1935
召
圏
又は
司会
当たり
たとえば
タレント
小田
##ライブ
リスト
決まっ
生じる
隆
##クリ
##政権
BS
流通
短い
離脱
1934
一軍
次男
##ストロ
北朝鮮
過ごし
狩
機種
譲渡
世代
後方
#
哲学
97
分岐
##テッド
福岡県
1928
姫
##弦楽
双方
##レッド
労働者
引き起こ
##ブロ
姿勢
現場
衛星
1929
##ry
##』(
##しゃ
公表
出発
家臣
食品
外国人
ベルギー
主体
二次
既存
##インター
上海
順位
##フィス
##ートン
中心部
干
乗っ
市長
代わっ
カタ
兼ね
戻る
男女
確定
暮らし
起こる
##US
那
##ハム
##後半
天然
最近
##イルス
いえ
人類
##ib
泉
あろ
取る
問わ
議長
##シスコ
##ツェ
上部
以内
姉妹
ヒュー
預
FM
加藤
専攻
負担
##エティ
イスラム
げ
##ドン
チョ
##ss
収入
山田
第一次世界大戦
丹
紫
物理
しばらく
一連
失わ
手がけ
##ff
綱
##ケン
##ノス
単行
絵画
継い
踊
##開始
##電気
法人
##フィー
傍
不動
体験
抑え
レコー
基づき
甘
##モア
##編成
事情
全長
清水
##エフ
##コス
奴隷
料金
発揮
##ショー
ロング
##ミネ
##酵素
福井
##バード
プライ
乳
##遺産
たく
ポリ
経緯
##KO
##ッシ
テン
ミュ
学ぶ
県立
##ファン
##チャンピオン
##テインメント
##エア
##措置
##電鉄
数字
##47
炎
リア
テレビアニメ
ヘッド
侯
##装置
やっ
こちら
曹
##ore
くれ
入手
盛り
訴え
コメント
##WA
きた
人員
南側
平日
申請
現れる
1924
ヘンリー
柱
シル
下り
辞任
160
敬
転じ
##42
##スラ
##試験
自社
##総選挙
いえる
ノース
修道院
抽
喫し
##として
##ブス
どこ
測定
アイス
営業所
政治的
アム
効率
援助
空軍
マシン
##45
##ばし
任じ
任意
小林
帰還
新規
移民
次々
取り扱
上演
組合
職業
##クタ
ドア
抗議
ファイル
デンマーク
駒
判決
##パート
##ワールドカップ
代理
伴っ
包囲
消防
長年
##ert
76
大手
聞い
##46
##陸軍
上回
画像
コスト
才
斜
##賀県
パワー
ウィーン
##ボル
43
群馬
##空間
ヤマ
学園
深い
少なくとも
づ
##しょ
"、
変換
宮崎
##移籍
利益
古墳
家督
##イセン
登場人物
フィンランド
る
UE
強力
遺伝子
に際して
コンセプト
函
研
アフ
刑事
攻め
証拠
関数
劣
季
##系列
##車場
ガン
示さ
公式戦
辺
##ベイ
メル
優秀
急速
インディアン
##41
##やく
働い
後者
接触
ショー
貯
音声
##自治体
マリア
1925
オープニング
幻
到達
当該
突き
ジャンル
##ue
##キロ
##洋艦
岐阜県
スティー
##イレ
##持ち
OS
オペラ
##OW
##っき
##稲田
コム
主流
西武
需要
##ンチン
パイロット
さい
功績
階級
立候補
66
作者
連盟
占める
享
斎
52
主義
1927
こうして
テキサス
災
##ユニ
付い
少将
山形
推測
死ん
領土
きょう
子会社
該
##基地
まつ
標高
着用
短編
1923
肥
##しろ
##lay
MS
勃発
滞在
配備
##ッピング
之
##ベス
##務員
##司令
当日
殺人
言え
1926
##ニャ
##本部
一環
依存
発掘
クリア
婚
##同盟
テロ
近郊
ギリシア
ドイツ語
エンディング
恩
態
##ザイ
##記録
(,
秘密
##ゼル
##パク
##マド
にく
印象
線路
脱出
歴史的
良く
しない
キュー
荘
けい
リーダー
皆
吹き
復興
##ニスト
170
淡
##チル
##さい
96
トレ
得意
撤去
##社長
ミス
一切
協定
連携
降伏
拘
レス
人生
越え
ジャック
78
SF
合同
案内
献
退団
##ウェル
ソウル
早稲田
##住民
立っ
のに
書籍
未来
##コーチ
##カラ
##フラ
テク
ヒロ
伝承
株式
該当
##ナイト
リード
アイテム
##44
##ヒー
東映
フェル
##ケットボール
##もり
##ナス
51
ブレ
マリ
報じ
##ステル
司法
温度
通う
終わる
##ED
添
##込め
続編
##両編成
並び
称号
##ッティ
ホワイト
浸
68
次ぐ
組ん
シリア
##ライダー
UEFA
垂
隔
##郊外
とる
広場
提唱
操縦
##もって
##ナルド
##レオン
徐々に
移っ
進化
チュー
##ッセージ
全域
実用
##力発電
新潟県
##IM
動画
少数
誘導
##イラー
加わっ
レコーディング
学区
掲げ
実業家
ML
権力
ビット
##ットボール
アマチュア
チャールズ
鋼
##しみ
##ネマ
AC
マグ
相続
##カリ
##詰め
本線
相次
開い
グランド
マイクロ
アメリカン
コミュニティ
掘
##高校
77
to
劇団
国土
違う
アント
打ち上げ
トヨ
ポン
一帯
例外
兵器
幹部
演技
##ネシア
##フェン
浄
巨人
直線
追放
シャー
犠
88
うる
仕え
伯爵
台車
イラン
##PG
交代
同期
##ティス
157
##プロレス
今後
優先
日常
1918
汚
滝
紛
##須賀
98
編曲
175
ジェームズ
ファッション
;
##越し
もち
印刷
##ビデオ
行なっ
##te
本塁打
キャッチ
肩
雷
##クレ
体育
楽器
送ら
5000
##uc
材料
孤
##しん
反発
)、『
700
##チャード
庶
釈
##ゲル
##メル
往復
攻略
絶対
##ルトラ
行なわ
鑑
##技術
事例
柔道
答え
##クシング
##勝利
86
一致
上下
爆撃
ランク
##年代後半
代替
体系
渡辺
##ズニー
せよ
グレ
ボス
並行
商店
Bl
処刑
屋根
年代
戦う
新宿
バレー
##デイ
##ーレ
本体
##ライズ
深く
関係者
##43
耳
##つき
実績
後任
##民主党
載
##ツァ
上野
ミュージシャン
##作用
前期
区分
大隊
独特
石油
You
したが
アルバ
竣
##ver
妖
握
##まら
##アナ
##捨て
山梨
特性
##機構
無かっ
債
朱
##作戦
176
ミサイル
日本代表
栃
87
井上
先端
圧倒
宣伝
池田
総称
##マンド
##くま
##直し
修理
捕虜
高級
ユーロ
##シーズン
##ナショナル
Am
Go
させ
上流
発明
##議院議員総選挙
##UN
旨
##地区
休止
圧力
損害
広島県
マイケル
マイナー
##まれ
##粒子
主導
公認
生命
直通
終戦
##出演
人民
殺し
現行
黄色
##リード
派生
##ガジン
##oh
膨
出席
社名
約束
##トラック
##らえ
提示
##ッセル
##科大学
挙げる
自民党
言える
名誉教授
偏
ざる
北米
広い
利用者
暫
桁
##作家
破り
近隣
サイド
祈
無線
見解
##サイド
委員長
をもって
換
)(
マラ
座席
想定
魚雷
ポンド
大阪市
##なし
非難
子ども
オーバー
##カイ
##元年
##ain
手術
扱わ
解消
##DS
底
##幕府
ジャズ
1919
ロボット
テレビ朝日
##わし
##ネー
##リダ
##温泉
四国
夫人
祖父
ちなみに
公式サイト
億
掛
たび
全面
師事
活性
##どう
デモ
トム
##ens
スイ
岩手
当て
部品
##アリー
##大震災
ある日
##プリング
##会長
ほん
上り
改札
緊急
繁殖
あらゆる
それでも
プロイセン
騎兵
##サービス
取り付け
刻
脇
##テク
コル
ロゴ
経路
西洋
通る
したがって
大使
自殺
##シングル
ところが
寿
洞
CP
一家
敗退
有限
簡単
船団
##インチ
ビッグ
染
##たま
原題
支部
敗戦
日中
業者
##ージー
y
煙
##こと
再現
犠牲
監視
私立
##コフ
##違い
AV
用途
##ージュ
ジャパン
慶長
158
フライ
フィルム
##AG
斉
##どり
分解
固有
症状
助教授
##レクター
1921
唱
##クル
53
異常
竣工
脱退
魅
##決定
250
ナショナル
##フォーマンス
偶
一本
及ぶ
同月
提携
郊外
##ft
##改革
図る
福島
##マッチ
##TT
##ラボ
##地震
##行為
警備
ないし
戦っ
トヨタ
マスコ
食べる
1922
スポンサー
灯
##教師
並ん
応援
本編
長官
Con
ハワイ
侍
菅
折り
防ぐ
レオ
学術
聞き
軍隊
マレー
理事長
##メディア
庄
紋
体重
参考
)、「
亡くなっ
孝
陶
加工
地形
急行
漢字
足利
##ハイム
湿
##ダイ
##ang
ボル
複合
通行
題材
##バンク
##共産党
ついに
アルゼ
クル
寄せ
趣味
##機関車
##EL
##ah
菌
##世代
##ast
数々
走る
##研究科
取り組
ノルウェー
al
よし
ダー
ベン
月刊
移し
##キャラクター
突然
詩人
リーグ戦
69
侵入
調べ
選定
選抜
やって
威
謎
##電力
67
AS
証言
跡地
厳しい
1917
プロ野球選手
難しい
##スポーツ
##コル
##打点
一旦
戦前
##プター
小さく
軒
##川市
募集
電動
出来事
―
奨
##メンバー
ぞ
##カロ
##ミル
##改正
さえ
存続
当主
戦時
指し
終結
ランド
バラエティ
丁
倍
康
滋
決意
アルゼンチン
りつ
除き
次いで
牽
もし
##バーン
広がっ
当たる
##動物
##ide
89
架空
##オープ
茨城県
##ージャー
勲
##ith
モチ
##クセン
##ーパー
159
##IL
寒
##つい
パイ
損傷
相対
##ょく
##自由
分裂
戦力
殺さ
軍団
##ヴィル
コミック
逸
##運転
##電車
やま
ケン
埋め
森林
##生物
ごく
交響
ともに
ボタン
##ストラン
屈
##受け
##町村
はる
免許
mm
メン
寄り
意思
規則
試作
##ly
ムー
未満
権限
京都府
##なう
バレ
マルチ
##az
##リル
おそ
住居
最低
##iz
##ug
欲
##最高
表彰
クラシック
KO
火災
観察
##エール
世界中
##デザイン
にわたり
謝
一員
語り
飼育
トーク
ライバル
梁
##しま
ウル
前方
暴力
根拠
止め
防止
ポート
アレクサ
モーター
En
信じ
反映
若干
診断
離婚
邸
ビー
##ロディ
旭
ハル
明る
表し
開拓
ライセンス
勅
術
##マラ
##細胞
まち
共有
幼少
最多
ワイン
入れる
オスマン
アニメーション
事前
降格
##ヴェル
##サウルス
尋
停留
ウルトラ
メッセージ
##之助
##合っ
##太子
じゃ
エク
疑問
##ッパー
##リット
ヤード
徳川家
アミ
経過
##ソコン
スタン
閣
##車両
史料
アウト
ボディ
一丁目
庁
栗
##エー
##構造
火山
##ホテル
168
##ies
端末
##ノール
もたらし
銘
##ust
",
アス
怪我
接近
##BO
##ld
枝
##府県
中山
若手
要因
福島県
1900
トランス
洪
サウス
携帯電話
早稲田大学
##IR
##ire
来る
雇用
ちなん
ブラン
##ジュール
##自動車道
晴
相談
##インド
ガラス
祀
亡命
投稿
破っ
##ドリヒ
宮城県
鹿児島
1914
##bo
##速度
旅団
様式
ローカル
成分
伝える
1912
##工学
移管
ヤン
借り
応用
触れ
課題
##パク質
ナチス
プラン
ポスト
##オープン
##なか
##言語
##博物館
コンス
##ザイナー
##シュタイン
##ニューアル
##セイ
##ure
グル
ドン
ポル
割合
建立
資産
疾
##民族
頭部
ミッド
小惑星
##リム
##書き
##ial
再編
批評
栃木
##クシー
##ーゼル
##IP
##レオ
成果
読売
##ンジェ
##ーマー
プラット
ボーカル
リチャード
リニューアル
##中継
大佐
宝塚
縮小
』("
エディ
##の乱
しれ
サム
大西
戦隊
##IG
入力
国防
武将
運航
中央部
夜間
抜け
死刑
##ジャパン
##グランプリ
##.1
つき
キン
大臣
頻繁
関わっ
##切っ
丁目
向かい
演じる
##キスタン
クレジット
%
##ゴー
##ゾン
制し
排除
期限
王子
##ロジー
述べる
シナリオ
伏
崇
売上
歌っ
示唆
シャル
三重県
##ライター
パートナー
##らさ
##街道
##ase
シア
修士
退任
乗客
授業
主題歌
邦
79
選ん
酸化
##リオン
手掛け
落とし
##ニュース
セルビア
太平洋戦争
忍
Be
不満
回数
振る
支え
最新
キャラ
受け継
##ソナリティ
FA
余儀
先頭
図っ
接し
浴び
織田
駆動
市街地
砦
##文庫
促進
北方
北条
##ウィン
群馬県
起こす
スピード
##EM
##ION
パル
向き
本当
##アウト
キャンパス
昔
##なた
Co
SH
含ん
戦国時代
##くら
アブ
ラー
記号
MLB
接する
##FL
##化学
サル
作中
併せ
保険
量産
##ージャ
スキー
##ッケージ
##ヨン
##ack
一体
署名
駆け
##ガンダム
徒
##かす
故郷
起点
##バッハ
関わら
に従って
芳
##市場
##ING
装飾
解除
##院議員
リンク
プレミア
##制度
成り
顧問
この間
カット
ラテン語
社会主義
叔
##保護
って
担っ
##ハウ
セレ
塗装
発音
ブライ
1910
《
##もん
##立ち
##負け
低く
前提
競争
110
コンパ
余儀なく
但
糸
##ann
たる
##アント
##フォー
##ンジャ
タッグ
##投票
##揚げ
GT
おも
つける
##ナリスト
3000
##モーション
##デュ
突破
##東日本
シュー
裁判所
文部
暫定
白い
農民
##っきり
互いに
透
##岡市
学名
読者
質量
##ビジョン
ようやく
##リヒ
あき
アダ
ジム
東方
##エルン
オーディション
妨
揃
ドゥ
ロス
協議
瀬戸
装着
ボストン
シーズン終了
保管
埋葬
逆転
##映画祭
##ースター
アプリケーション
沼
室町
措置
検出
訴訟
##メーカー
モチーフ
日本の漫画
ソビエト連邦
獣
先駆
出資
引っ
講談
部族
ソニー
集まっ
悩
昆
##内閣
実装
悪い
教員
数え
ドキュ
事業者
平安時代
放送時間
寸
迷
##当て
とく
ミシ
後ろ
自主
##文化財
斬
すら
特許
##イヤル
イラク
フィリップ
##国立
##生産
ソー
観点
ドイツ軍
ピーター
フロリダ
##pp
桂
胴
PR
収集
同名
感情
確率
しよう
迎える
コムーネ
ドライバー
パフォーマンス
##の子
NP
陥落
スマート
パッケージ
##フランシスコ
シンガポール
ミュージカル
##オル
##コロ
##日目
He
クイ
地帯
気候
王位
評し
あくま
グロー
沖縄県
考え方
##ステークス
弥
##ラノ
じょう
おそらく
テレビ番組
##うち
##雑誌
囲ま
大韓
知事
解析
違反
##シュー
あわせ
決める
##テーション
捉
晩年
渋谷
飾っ
フロント
ナポレオン
##TA
Ex
メイ
下流
射撃
##リウム
やすく
##帝国大学
浪
##女優
##能力
##ary
cc
意向
社員
1913
Play
売り上げ
僕
##ぐる
前回
回避
高知
たか
書記
素材
レストラン
##料理
##波数
コス
勧め
若者
かかっ
クリー
##クリート
##田町
##菓子
商人
強調
当局
抱え
気象
航海
衰退
##入れる
##スタジアム
SC
働く
国連
欧米
酵素
##らかの
##ペーン
##ーマス
チャー
##GM
郎
##はり
ニュ
##カット
##ダウン
ジェイ
小規模
コメディ
チャンネル
##ほど
##ロウ
##付き
##大使
モル
大人
夫婦
才能
短縮
##ケストラ
##ジーランド
トーナメント
##NS
剤
粘
##止め
リュ
別名
豊か
財産
開館
》
懐
猛
##々木
フリ
中将
君主
態度
校舎
海洋
退職
市町村
トレード
琉
##たび
##トー
##親王
思う
探し
通じ
大日本
金メダル
##イラ
##下げ
##酸化
ニュージーランド
##回り
##地帯
IB
仮面
女王
彫刻
##ビー級
##道府県
スーパ
瞬
代目
受験
搭乗
本土
##タイプ
156
##デア
地中
招待
描き
災害
その間
##プション
ウェスト
旋
軟
##芸術
リス
岡田
流域
満州
##メンタ
エリザ
柏
肺
葛
取ら
##ッポン
レンタル
位置づけ
催
SU
ゆえ
学問
積み
豊富
プラス
起こり
創作
宮廷
石川
遺体
##ローズ
バトル
僅
蓄
##ッソ
##ポリ
##ヤン
無人
##TV
##ix
##かく
Se
船舶
運賃
##イクル
やはり
アート
サンフランシスコ
##まえ
ホー
出土
食事
##シオ
##取引
基盤
大将
##プレス
イギリス軍
##テレ
奏者
放棄
文明
渡る
転向
銀河
必ずしも
##ナイテッド
稀
薩
##ーノ
##出場
ひろ
アカ
マサ
下し
委託
廃車
登山
169
コラボ
美しい
勘
潮
##エラ
ホイ
松平
面し
##テンツ
1916
沢
虚
辛
挿入
むしろ
ポップ
避ける
##スターズ
##モス
##飛行
いけ
おく
らしい
スタジアム
粉
##せい
とら
に当
併設
土曜
増大
愛媛
終点
近鉄
ラグビー
拝
掃
##偵察
61
CS
三角
八幡
応募
##チック
##ment
プロテ
上がっ
出会い
##ナミ
BO
ペア
築い
金沢
##ベリー
アレンジ
パソコン
ディーゼル
##CD
##スキ
##宇宙
混合
結ば
関わる
ブレーキ
釣
62
説得
避難
##メイト
アルファ
ヴァイオ
##原市
##ond
05
年度
教皇
165
見せる
1911
ブラウン
フィールド
俊
##com
##ong
Sy
『"
テレ
施さ
編纂
繰り広
1915
グランプリ
ジャケット
##ational
嫡
宋
##山脈
##植物
##程式
NE
乾燥
物資
直径
衝撃
補給
パターン
##年前
助手
天体
奪わ
##イルド
美術館
##..
##are
中隊
方言
白人
養成
狂
##じめ
##レム
大気
天保
学部
認可
認知
地下鉄
達する
##.2
##IA
蘇
##ジラ
AM
MC
恋愛
毛利
送信
阪急
騎士
黒人
##ットー
共産党
ラウンド
桃
##兵衛
##支援
二重
何度
努力
業績
論争
##モール
155
チェコ
トライ
1907
アトラン
エンター
フリードリヒ
鼻
##少女
TR
ロン
周り
官僚
##ークル
ブーム
時間帯
硫
##ドウ
##age
うま
別に
正面
要塞
逃れ
Sch
1909
引き継い
肝
##リュ
?」
上京
生存
降り
##付ける
##ミネート
ヒロイン
ファミリー
履
##ねる
なぜ
有機
造船
配属
サンタ
キャンプ
契
##グロ
ゼロ
マニ
典型
実力
##レイク
アラブ
オフィス
##St
##可能
てん
カテ
前面
号線
徹底
書く
激しく
社会的
ろ
鍵
雌
##空軍
##ock
メガ
在位
死者
独占
移植
##フィン
##ホーム
シート
バイエルン
バスケットボール
##合う
##大賞
身長
避け
##アニア
プロセス
##笑い
63
72
ベネ
今回
回収
後年
オリコン
##だい
##セロ
##ニオ
:)
イー
マス
支流
最中
艦長
逃亡
##フリー
##新幹線
メダル
周波数
西日本
プレーオフ
バレーボール
##地下
##ach
Te
会話
新型
##ベリア
卿
賃
##われ
##テイ
##国家
上級
大名
課長
東海道
エドワード
基礎自治体
##ory
去っ
受信
実践
最小
琉球
タンパク質
忘
鏡
##保障
##向き
まと
ネタ
従軍
放出
指揮官
熊本県
##ンチャー
オンライン
##アド
##療法
入賞
ドラム
青森県
ノミネート
岡山
##ンチェ
くらい
##ポーター
ディスク
レーダー
コロンビア
##市長
ベイ
尽力
支店
考案
開放
##ガリア
文学部
称する
フォード
鹿児島県
っ
勉
##そう
##メイ
##循環
南方
夫妻
##tern
167
ジョー
相次い
念
学位
引用
数値
無視
立つ
送る
適切
##ーバー
名乗っ
如
##エム
##合わ
##ish
セミ
在住
改装
選考
##ラリー
リアル
史上初
刀
##トレ
##und
No
近畿
匹
##学科
##牡馬
不正
##ツアー
准
##ass
余り
偵察
国外
民国
資源
不動産
機関車
準優勝
置き換え
##選手権大会
ファースト
##49
##ノフ
##モー
##取る
ホル
予測
地理
活発
##ツィア
被害者
灰
茂
##ギャ
いま
人種
化石
評論
映画化
認める
楊
01
たま
空母
##ヴィッド
にあたって
インドネシア
SM
従業
##ページ
##LE
α
初演
整理
血液
赤い
配給
何らかの
映画監督
Ph
初登
講演
##ーナス
ゴルフ
ゴールド
##ディングス
南アフリカ
歓
##子園
##覧会
##関数
厚生
司馬
液体
王朝
駐車場
ケーブル
都道府県
##メンタリー
累
絞
削減
甲板
高松
プリン
司令官
桑
貝
航路
##号線
並ぶ
中断
東南
法的
1905
##TS
泥
須
WW
創造
十字
外側
懸念
##司令官
TKO
みなさ
ユース
堅
腰
髪
Ad
戦艦
挟ん
相撲
車内
酸素
##ッセン
##ディス
1908
はっきり
昌
##向け
##ite
##巡洋艦
##テス
ガー
任期
変身
時に
##ドーム
##ニズム
##メール
ショート
##pt
俗
労
虐
##ヒル
##渡し
出て
比例
ここに
##プロダクション
##AK
宅
算
罰
##シナ
##川町
前者
原理
抑制
焼き
結論
育て
走り
エース
##ブランド
啓
##ica
##int
AK
##ケード
ペンシル
中華民国
##りつ
兼任
征服
文章
軽量
166
Mus
cod
スコア
講談社
##ux
杯
##アム
##スパ
##崎市
AN
トー
合唱
町名
立地
オーク
クロア
ブログ
キャンペーン
慰
AP
地図
幅広い
第一次
長距離
弓
##ウロ
##体制
かね
修復
後部
時刻
リスク
##OP
##ガイ
次に
盗塁
部下
##イアン
ひとり
ライフ
山梨県
岡山県
秩
##ber
Br
つか
品種
首位
##oy
猫
誓
恒星
最古
騎手
黄金
##美術館
And
あなた
フィラ
剥
##戦隊
##返す
09
La
パナ
戦術
水域
シティ
名乗る
戦闘機
##野市
ベー
上杉
刺激
司教
境内
外観
寄付
本種
長編
陥っ
##コース
##ダンス
ダウンロード
##人目
容疑
屋敷
水戸
甲斐
落選
鳥取
##センチ
130
III
満たす
訪れる
##ーマニア
なくなっ
熟
##以降
##工事
前田
半年
同意
牽引
請求
重賞
##ワール
スパイ
|
##ネン
##塁手
中日
及ぼ
法案
視点
電波
##バイス
ジャンプ
コレクション
カリフォルニア
##奏曲
着手
阻止
定める
しょうがっこう
##やま
##権者
イェ
対決
怒り
週間
配布
隠し
音源
##ポリス
岩手県
##ッシャー
##KY
交易
山頂
小説家
##三振
##学会
心理
正規
理想
上げる
専門家
所在地
1889
##スティバル
符
撃破
歌う
開校
##ンヘン
トラブル
フレーム
懲
##リャ
##wit
08
MV
Me
日曜
##っくり
##リンズ
総選挙
##程度
がっ
ボン
人形
探検
控え
沈没
通勤
##テーマ
##ニックス
名古屋市
ミッション
##貨店
-)
栄養
校長
武士
空中
選ぶ
パーク
##ポイント
クロアチア
ブルガリア
##回衆
##褐色
AR
室内
爆弾
県内
配慮
領主
##回衆議院議員総選挙
##TC
##ロフ
"』
UN
イエ
木村
##務大臣
New
にくい
につれ
分かっ
大西洋
改めて
##ンタジー
アナログ
喪
裕
メカ
大衆
##ヘルム
世界各
偉
魂
##ath
主宰
南海
成人
確実
##フライ
##自衛隊
共和国
取り戻
圧倒的
ある程度
日記
見な
##シェル
AAA
NBA
お笑い
具体的
経済的
ラジオ番組
於
のり
待ち
救助
コピー
広がる
見つけ
山陽
##ニエル
インス
にわたる
明治時代
##ヨーロッパ
##ンタテインメント
##ロニ
##薬品
Sc
リト
河口
まった
一緒に
##pe
革
##ニョ
Pr
イリ
少な
所蔵
男爵
道具
くれる
ヴェネ
共和党
滋賀県
ユニバー
遷
##ペル
##iss
化合
悪魔
終盤
閉じ
駅前
山口県
##ろん
##arl
就職
我々
鉱山
長らく
##都宮
戦線
気温
研修
要望
##地下鉄
125
オスマン帝国
##ve
蜂
##づい
ゲイ
上の
朝廷
車線
##じょう
##ーニャ
ルーマニア
オーケストラ
##AY
##sh
尼
棒
泰
秦
賢
CH
低迷
山崎
有料
皮膚
##バース
セーブ
ヴィル
##アカデミー
アメリカ海軍
貼
81
ピン
命中
就い
当地
総督
後継者
大韓民国
ジョージア
歳
ラブ
共産
口径
局長
構え
顧客
そのうち
LI
スラ
動力
北陸
日々
王立
風景
##ルソン
Web
1906
アラビア
##マネ
##旅客
冒険
同国
推移
新田
突入
走っ
車種
高め
高架
ならび
ハート
ヴァン
##ッキング
トレーニング
パーソナリティ
##TR
裁
##グリ
##ノイ
##制作
##失点
##路線
Cl
両国
教室
犯人
##ールス
Wor
ウイルス
##プロデュー
妊
揺
##次元
IN
圧縮
感覚
教科
砲撃
衣装
##ドニー
中心地
視聴者
拳
疎
##田区
恋人
空襲
賞金
クイズ
オーナー
ヒトラー
叩
ふく
アテ
乗せ
樹立
絶滅
間隔
##太平洋
ガイド
##ショップ
識
##ニエ
リオ
一貫
三国
事項
元禄
宿泊
踏み
要する
飛行機
乗り入れ
codice
##課程
修行
小野
抗争
解雇
高校生
ジャーナリスト
バラエティ番組
柴
##per
チュ
ヒル
主役
太田
寛永
特集
至ら
ツール
中国語
進める
##ンジニア
ドキュメンタリー
j
甥
出撃
次元
順次
連合国
##久保
ませ
まる
みる
ワー
冒頭
士官
電源
##かける
##ューン
コール
インスト
ファイナル
溝
碑
鎖
伊達
原料
山岳
深刻
トイレ
まもなく
フォーク
##グル
##マク
##ンテ
07
幼い
心臓
救援
##ジック
900
停留所
初勝利
ナンバー
子供たち
##チャンネル
ディレクター
乙
哨
##理論
##田駅
変形
看護
街道
シャン
タイヤ
マリー
オプション
尺
##やす
##ick
人事
粒子
コンテンツ
##ビュ
##EST
Ed
中核
幾つ
有利
魅力
##ンガー
##上げる
DNA
カテゴ
厩
焦
蒲
##気に
##ign
内側
日産
発覚
贈ら
隊員
黒い
##上がっ
ハンド
伝わる
加わり
土曜日
##自身
##部屋
ラム
入門
同人
敷設
著作権
##学院大学
アシスタント
殆
班
##写真
メス
多摩
Joh
判定勝ち
糖
##戦士
2.
冬季
橋本
純粋
英雄
バンク
まったく
間もなく
##エイ
先輩
削除
延期
性的
町村
支払い
チベット
##日市
おい
オハ
学年
張り
格闘
##ルマン
##べる
##ナウ
##津市
IP
ゆく
失い
聖書
行事
奪三振
漏
##ザス
##稚園
##階級
##ium
ガリ
切れ
捨て
旧制
水上
ちゅう
トーマス
ニューヨーク州
##舞伎
セイ
三井
残す
##しかっ
##セッツ
単行本
キューバ
マルクス
##se
慕
錦
オレ
大変
語ら
1902
ドラゴン
妃
扇
醸
##体育
##楽部
##機器
74
on
会津
東宝
紛争
船体
##エット
UFC
メール
地中海
連合軍
1890
揚
繊
##ナ州
##憲法
##義塾
AL
傍ら
最上
薩摩
論理
横須賀
気持ち
##ier
入口
単語
当然
慶應
担う
##パニー
ウィン
1903
釜
雰
##チナ
##市民
##輸送
信用
庭園
循環
焼失
ワイド
代表作
##ブリッジ
フィギュ
##IV
##囲気
71
排気
昆虫
##ベスト
##リアル
ヴェル
引退後
雰囲気
##ブレーキ
##マガジン
マサチュー
掌
臣
##処理
##出版
.)
たけ
個別
入場
実在
通学
高齢
##タール
##プテン
ナイト
ヨハン
つながっ
マサチューセッツ
笠
##王子
##評価
##man
スリ
平野
扱っ
殆ど
民衆
##ドール
##ヴェン
##ical
スクール
フィート
##ステーション
オールスター
峠
##環境
EX
出店
和田
帰っ
日立
水平
臨床
融合
騎乗
##レール
もっと
積極的
競走馬
縄
閲
##ずる
##打ち
##諏訪
アニ
戦場
願い
食料
##リンク
珍しい
##力発電所
ショッピング
メジャーデビュー
##コモ
##ッヒ
##五位
##役所
##神話
SD
エス
コア
丘陵
青山
##ゾート
童
腐
遡
遮
##ガニ
##処分
##反応
"」
06
キュ
デス
ミリ
劇中
客車
工作
米軍
##キャン
##ブック
WBC
従業員
見つかっ
ウェブサイト
##")
##AX
妙
人材
公爵
文芸
語る
140
ハイン
短期間
##デルフィア
鋳
##パラ
##書店
!』
てる
滅亡
退社
##ヴィス
ルイス
出会っ
##議会議員
##リコプター
##行政
出産
松竹
滑走
適し
限界
##立大学
秋田県
取り組ん
専門学校
##Station
フィラデルフィア
券
桐
##連勝
##ool
CR
付与
全線
同級
後退
捕手
沿線
著者
質問
かける
タッチ
一時期
上回る
##国際空港
堤
巣
還
##ユー
か所
大坂
対処
差別
幕末
権威
出版社
変える
##ミサイル
アメリカ人
イタリア共和国
房
棋
渓
趙
##マリ
##賠償
DJ
ケイ
ドロ
モハ
個々
僅か
前日
忘れ
放っ
歌唱
##ネラル
##新聞社
出演者
栃木県
フランス軍
幽
瑞
##ても
エー
勉強
季節
発し
警戒
##キット
ジェット
##兵器
##古墳
##川駅
夕方
水素
筆頭
総裁
##ナント
##限定盤
事務局
変わり
そうした
##!!
ー
駿
##えん
##状態
IT
スル
儀式
初戦
告げ
墓地
広げ
紋章
行方
##セロナ
##ベック
##ンドラ
しかも
##クトリア
##スクール
エリザベス
ペンシルベ
モンスター
墳
##まつ
##ルカ
##盛期
介し
招い
相模
見方
鎮圧
ちゃん
にあたり
アルコール
##tt
摩
筒
##なら
##ギス
##ove
叔父
平面
美濃
老朽
##バイル
##apan
北西部
参加者
クリスマス
##ii
##son
区画
コート
影響力
支配下
呪
##ヒト
##ホー
##五郎
##ern
三島
入植
勝負
参入
建国
村上
毎回
立体
解任
##バキア
変わる
携わっ
1904
世界遺産
都市計画
##衛星
おき
かた
中島
人権
哨戒
目撃
福祉
簡易
取り組み
卓
ネイ
ヒー
但し
併用
東急
覆わ
附属
飲食
##カーン
##競馬場
つもり
初登場
本格的
##高速道路
ブルース
マスター
衆議院議員
均
##いち
##フロ
倒れ
加速
改編
祭り
重大
ハウス
生かし
1500
シャルル
陸上競技
畑
##兄弟
##効果
SE
あの
併合
保証
容量
成し
造ら
NTT
スピン
変わら
針
##まさ
##ニコ
##戦線
##皇帝
LO
アプ
サウ
対照
役員
行列
調理
##デター
##ence
Col
カウン
富山県
観光客
テレビ東京
##リエーション
噂
##がく
##act
同等
島津
新作
早い
狭い
考古
身分
長女
タウン
バレエ
バランス
☆
銭
##野手
##amp
##oft
一度
別れ
豊臣
連覇
##ミット
グレート
ストリート
ディズニー
凝
爵
##わけ
オペ
カイ
ロケ
三男
治安
近江
都合
重複
生放送
軌
##十字
##ile
広大
階段
眠
##いう
##聖堂
Or
コネ
施工
##シーン
かけて
佐々木
##ke
震
カス
同僚
唱え
恐怖
抱い
時計
評判
金曜
ベクトル
##ace
##rom
Ne
ミル
信濃
分散
切っ
原型
延伸
航行
##ガース
愛媛県
ヴァイオリン
##高等
中野
制約
疾患
西方
##フェル
##ブール
##レクト
##ーラー
新幹線
決して
##旅客鉄道
アダルト
##OT
虎
##コム
##ドー
しゃ
契機
広域
断念
省略
着陸
路面
##ボーン
に従い
宇都宮
漫画家
ミュンヘン
グラフィック
妥
##公開
##王座
##ron
グロ
品質
変動
大宮
実は
得て
施し
海水
開き
##シート
##タント
##バレー
モンテ
行政区
スカウト
慶應義塾
##sp
宛
据
疲
##場所
##歴史
82
介入
入院
抜擢
顕著
##ゼント
住宅地
1898
ストライ
鎌倉時代
##ホールディングス
PlayStation
##EE
##寄り
いれ
ブロ
作画
悪く
移さ
踊り
##カメラ
##プール
大分県
コマンド
##oun
乗員
乗降
吉野
因ん
小倉
復元
所領
捉え
残留
##決定戦
バス停
##フィール
##アスケート
##リク
##下旬
南極
庶民
文庫
比率
熱帯
表さ
##月下旬
Ser
大いに
##チオ
##停止
##表示
##ame
創建
石炭
返還
閲覧
##メイク
CPU
司令部
1897
##ストリート
##OD
脂
##不明
##安全
人数
在任
就役
落下
退役
##カンド
##ビング
Man
もらう
タンク
日曜日
エレクト
巻き込ま
引き継が
泊
##相撲
##ube
73
住み
外れ
著し
##ヴィン
不安定
恵まれ
##ジュニア
日本映画
##神宮
厳密
台風
所長
稼働
落語
##ッスル
日本海
ロックバンド
##基準
内陸
土壌
伸ばし
ロシア語
##yl
俺
勤め
壊滅
大公
##グラス
##モニー
USS
徳島県
生き残
1901
マレーシア
##アミ
##テロ
##攻撃
公的
奨励
演説
##メタル
わかる
大都市
奈良県
##プロデューサー
##がし
##ほか
##わさ
##ニル
##ンバ
##表記
##証券
ヤク
千代
左翼
改訂
本店
流し
牧師
芸名
被災
遂げ
スリー
幼稚園
シンガー
ワールドカップ
彩
絡
輩
la
上述
不能
城主
実家
横断
看板
賛成
バイオ
正しい
石川県
割り当て
##アイランド
ボクシング
トップチーム
媒
誠
邪
##名称
EU
アタ
ドー
ラス
三浦
主任
富山
謝罪
近衛
##ディオ
マッチ
##電気鉄道
もたらす
律
虫
##動機
94
ポケ
快速
永禄
濃度
疑い
発注
短く
##プトン
Lin
仕掛け
法学部
金曜日
1896
アーケード
イスラーム
ハリウッド
##.7
##DP
##全国
##差別
内蔵
宮殿
標本
漁業
細川
統括
##ンドー
みんな
プロト
メトロ
必要性
##コミック
繰り広げ
##カロライナ
零
##登録
Ma
動員
徒歩
曲線
消え
##インズ
##stem
とても
新しく
歌舞伎
オレンジ
高校時代
代表取締役社長
句
婦
擬
綴
##エゴ
##ーヌ
##兵隊
##ime
##ost
ふる
不定
全般
兵力
山地
発症
覚え
討伐
頂点
##西日本
うまく
実質的
建築家
捕らえ
飛行場
1870
和歌山県
吐
蓮
讃
##しき
##医療
##成績
カム
小山
木造
無限
田村
礼拝
モント
劇場版
選挙区
マネージャー
ゅ
智
萩
ch
本国
洪水
秀吉
講義
留まっ
種牡馬
キャスト
タクシー
チェーン
##VA
ネオ
審議
進歩
釣り
高山
##ソース
##ステージ
それ以降
とりわけ
オハイオ
替
##ラド
レジ
休日
偶然
近世
##ドニア
##ディスク
そのほか
もちろん
組み込ま
ターミナル
##コンピュータ
ヴェネツィア
禅
##がい
##用車
##肖像
84
GM
なれ
メモ
尾張
結晶
話す
世界的
プラットフォーム
励
慈
篠
##ちに
92
反撃
成田
満足
皇后
薬物
軍勢
##名古屋
米ドル
たびたび
東日本大震災
##.8
##PS
把
棄
胞
賭
##ヌー
##教徒
HD
チリ
専念
水中
消し
神話
##カラー
##シオン
##マリア
ABC
メモリ
ロマン
マスコミ
##フットボール
ヘリコプター
##急行
早期
条例
熱心
刑務所
ダブルス
自分たち
ダイヤ改正
嵐
雅
##ギリ
##格闘
##海峡
##進出
##メット
##ヴィチ
For
ピンク
山形県
手続き
スペイン語
##51
鞍
02
BM
ガソ
守り
東大
神聖
警視
通貨
配列
##クラス
##ハルト
##イアンツ
スイッチ
##パーセント
Japan
羊
酷
83
受容
技法
角度
仕組み
集める
インディア
柄
汎
舎
バッ
上田
各社
大尉
強度
調達
##クサー
##ゲート
もとで
期間中
コントロール
堆
##ムス
##規則
##ina
先生
専属
捜索
##リーフ
Mac
ベンチ
二丁目
小学生
##ユニット
##ーリング
キャプテン
##.3
##62
##oo
##グレ
##盆地
侵略
妊娠
学長
敵対
艦艇
違法
隠れ
##オール
##ルイス
##ロット
原子力
地上駅
ガンダム
ペルシア
コミューン
インターチェンジ
##ズミ
救出
育っ
転用
##ナップ
##ブラン
##ヴィア
マックス
孔
##さま
##ッポ
##ラト
##所在
きれ
ミズ
享保
今度
努め
所持
振興
春日
概ね
駐屯
##ペット
勾
培
##ドア
##ネイ
##営化
保安
慶応
確か
負っ
野生
騒動
京都市
技術者
##よし
##カナ
##ook
th
互換
構内
港湾
無効
監査
読む
財団
##ライド
グラン
上がる
候補者
単なる
長崎県
##ベーター
##ction
コンスタン
呈
鋭
##墜落
##戦車
##神経
DC
アベ
デー
出生
函館
感謝
検索
輩出
辞職
込め
開く
##グラフ
アダム
テニス
芸術家
##ンスキー
##ージェント
##エンタテインメント
儒
悟
益
蘭
##切ら
充実
全身
同行
完結
立法
金額
##メイン
##倶楽部
わかっ
ミドル
文化財
1880
仰
##ハラ
##oci
91
制覇
回答
正当
評さ
開局
飲み
##ザーズ
##リップ
衆議院
1899
呼びかけ
路線バス
##witter
##aw
致
##っぽ
##パイ
##椅子
##解放
ルネ
競合
繁栄
開け
##っかり
##キュー
##モント
シンボル
ブロード
リトアニア
仮面ライダー
##DA
##士官
##物質
##ous
定年
将校
肉体
重力
##庁所在
ケンタ
ヴァル
##庁所在地
あくまで
チェック
ドイツ人
ニューヨーク市
涙
譜
##アク
##専門
##特別
多用
就航
撃墜
福音
統制
読ん
通し
運輸
電圧
アルゴ
戯
##建て
##振興
小川
度々
得票
法令
物体
過剰
違っ
##えもん
##コピー
##リアス
ほしい
上がり
国土交通
##GP
捧
##ケー
##建築
トル
味方
市販
準々
狙っ
長谷
シェア
ヤング
コンテナ
ロイヤル
銅メダル
高速道路
籠
##提供
##楽団
アポ
メタ
博多
拘束
水準
炭素
行使
##ワーズ
ターボ
脚本家
準々決勝
ゴールデン
##55
##de
##アラ
##機会
##isc
どれ
伊豆
使者
大賞
弾薬
斎藤
没し
現状
瞬間
石井
脅威
運河
##ベール
##APAN
ラスト
それから
バイパス
放送開始
ちゅうがっこう
##IX
耕
##リラ
##公演
##千代
##張り
ノン
審判
爵位
貴重
パネル
ベルト
1871
とどまっ
拓
##キス
##リフ
##牝馬
##独立
位相
出入
回り
採択
治世
表紙
##シウム
高まっ
主として
チャレンジ
デザイナー
キロメートル
枢
羅
##山城
##文書
##ark
がん
カプ
マツ
周期
垂直
阻害
アラン
伝統的
##カレッジ
共産主義
銀メダル
穀
綿
闇
##セフ
##ray
全部
尽く
褐色
NAS
合衆国
ストック
##ck
拍
##学生
##投手
CO
キル
三つ
種目
##フルト
させる
##タリスト
##ミックス
##ッラ
マド
大蔵
振動
検察
正体
策定
職人
##セラー
北東部
商店街
切り替え
テキサス州
##UM
々
堺
括
猪
膜
##ちゃ
##ソル
##安打
会談
工学
摂取
野村
東京帝国大学
##八幡
MP
ゴム
中川
損失
耐え
詰め
通路
遭遇
##ディン
##ワース
##掛ける
スカイ
南西部
見なさ
つながる
カレッジ
舟
##たし
##価格
##競走
My
ウラ
ムス
京阪
同地
招集
流用
海賊
種子
親交
##ゴスラ
##ヴィヒ
ライヴ
映画館
John
##諸国
カロ
不要
傾斜
奪い
奪取
安価
肖像
隠居
集会
領地
##グラム
##レスト
350
従って
##ベンチャー
克
##標準
DS
オオ
下位
付加
増し
実況
海域
球場
貧困
プール
福井県
1894
Comp
ドライブ
クーデター
ヵ
欄
泣
##政党
93
三河
予防
会計
安政
定員
投与
筑波
##ローチ
あたっ
ニック
厳しく
##サンダー
##.6
矛
##ズル
##会見
##抜き
GI
OF
ガル
モニ
公益
山下
禁じ
表題
誇る
諏訪
警告
##ヘッド
つとめ
ボラン
World
##MS
β
艇
響
##福祉
##ram
一日
特異
##リエイ
もらっ
ビール
##ークラブ
京都大学
##エネルギー
##ee
魏
ボリ
売れ
落と
題し
##らしい
##シスト
##ターズ
BGM
グレイ
##プレミア
1872
スマートフォン
##最大
HP
ゆき
夏季
安打
少佐
擁立
未だ
補佐
アシスト
アンダー
ヒーロー
茎
跨
アサ
信長
受章
固め
大野
決議
浜松
秘書
親友
誤っ
##ボーイ
##あい
##マト
フー
佐賀
再婚
力士
平行
特典
科目
職務
ダメージ
出場機会
ギタリスト
胡
謀
),
テル
交戦
勲章
同志
密度
数年
日野
欠場
死ぬ
無事
町内
真珠
軽減
除去
##ローラ
##上がり
はるか
セリエ
背番号
ボーナス
##業者
##海戦
ON
個性
入居
再会
寄与
序盤
木材
東芝
##しょう
##シュタット
##ランキング
Intern
##58
##ビリ
##ピュ
##引き
##楕円
##球場
##目的
##維新
##ros
ふじ
城下
州都
撃沈
暗号
貸し
首長
」("
トマス
結果的
1886
z
##対象
##ork
冷却
実戦
巡っ
海底
農林
間違
##land
名づけ
高める
##コミックス
##AF
##OK
穏
蛇
##ゥー
##ホン
##住宅
##政官
##神戸
CL
勝っ
喪失
排出
教区
最適
踏襲
同級生
従五位
横浜市
著しく
キャスター
湘
磯
##わい
##ton
EC
スズ
出品
及ん
渡し
高野
クラウ
ピーク
##国際映画祭
篇
##コア
##ラグ
##合戦
セガ
加賀
将棋
替え
遊び
適応
##ニウム
##ンガム
カフェ
スミス
発電所
香川県
##ジェリア
ステップ
メアリー
鮮
##連覇
ID
メソ
優位
反射
団地
外見
家系
広報
把握
河内
生態
藩士
衛生
野菜
陸地
##弦楽団
広がり
##アイドル
1868
チームメイト
蒋
##づく
##ere
予約
作風
浮上
要件
講座
陣営
##ピール
フェア
放送局
##オーバー
1892
##.4
猿
鷹
##もと
##用語
半島
家康
小松
徳島
葬儀
農村
運命
電磁
ウォー
小学館
指揮者
比べる
アンドレ
サークル
殻
##old
04
レン
伝達
馬場
##理大臣
加える
開幕戦
##ボックス
1895
スプリング
凍
是
##将軍
##電池
##KYO
和解
家老
景観
月曜
望ま
楽章
福田
退官
バルト
繋がっ
##ズリーグ
ポケモン
煮
##えて
でん
中退
同性
極端
降板
##ちょう
##バリー
##フィル
Vol
スロー
サンディ
室町時代
ピアニスト
ユニバーサル
プロテスタント
プロモーション
鍛
##思議
##科医
妨害
定理
山脈
最下
鹿島
##ロイド
日本の政治
##検査
山中
後世
普段
流入
証券
論じ
##ニオン
使える
イースト
ダニエル
テキスト
暖
暦
やる
倒し
支給
日光
果実
被告
見舞
貫通
##メニア
##ヴィー
批評家
ザクセン
シドニー
##ox
彦
晋
##とり
##のう
##ケイ
)-
Wh
なす
収益
怪獣
死体
鳥類
##ベート
一気に
##まい
##奉行
##pen
ミネ
他社
国有
妖怪
小笠
弱い
特撮
##ラスカ
##同組合
皇太子
1891
##セラ
##人気
##山町
かく
刺史
地質
墜落
本質
歩行
精度
締め
胴体
飾り
##つける
すぎる
ミラノ
リズム
消費者
申し出
1884
1887
機動戦士
##ユナイテッド
プロダクション
##ギン
##ose
住所
出港
排水
牧場
甲府
緩和
識別
##ッセイ
イエス
付ける
警察官
1885
##ゆき
##パル
##引退
天井
寛政
師範
楕円
浮か
白色
親子
載せ
閉店
カーブ
ソング
自衛隊
集まり
##ンチェスター
吊
沙
##より
##ッペ
単一
招き
捕獲
推奨
燃焼
逃し
もうけ
ブドウ
ボート
備える
##ハンマド
インターナショナル
コミュニケーション
隙
餌
##川区
##ont
ガイ
便宜
信者
譲り
##ジウム
##マスター
ブルック
##ローマ帝国
ユーゴスラ
##IO
##pr
塚
漂
##めぐ
##ear
EP
ES
創始
史跡
呼吸
習得
量子
とくに
パーツ
社会人
チャンス
レビュー
則
##はや
##市街
二軍
公国
客員
知的
##ガール
##リーガ
##ンダイ
##イベント
##ハウゼン
1873
ヴァージ
北アメリカ
キャッチコピー
##eth
問い
招聘
源氏
照明
高田
##ームス
エクス
中学生
外務省
科学者
あまりに
国際連合
引き起こし
東南アジア
播
Tr
中盤
判事
台頭
好ん
封じ
幹線
庁舎
打者
藤田
頻度
駅名
##サイズ
##ープル
シミュ
甲子園
アイデア
##コマ
##性能
##期間
##海岸
##集合
##att
一年
他人
守っ
据え
消化
砲塔
部位
配下
報告書
日本初
編集者
##ディアン
1888
徳川家康
コラボレーション
##CA
憧
頑
##じん
##もそ
CG
中立
会合
坂本
検証
追わ
遠く
当たっ
最終回
有権者
重要性
レーザー
コンテスト
##56
乏
慎
##会館
##聖書
Ab
GH
ベラ
勢い
取扱
市川
情勢
民俗
許し
野党
##階建て
決勝戦
缶
##ゅん
##東区
ラウ
債務
厩舎
合理
名鉄
定数
後藤
浅草
滅ぼ
財務
開戦
青春
##ogle
起きる
ピエール
綾
##がん
##ale
="
土佐
常務
急激
番台
神田
誤り
##オンズ
Rec
ウッド
ストロ
ヴァイ
YouT
正式名称
##61
束
跳
霧
##中旬
##取ら
##四郎
##楽器
##遠鏡
)「
不良
名目
水道
無理
緑色
農家
##もそも
##月中旬
1893
そもそも
槍
##でん
##シエ
##バマ
ハロ
世紀
変数
戦士
補強
語源
音響
##ッシー
につき
アンリ
ホンダ
##ivers
朝鮮半島
敢
##つく
土木
増強
引く
電流
##ヴァル
Car
北九州
##フォーク
ボックス
JAPAN
抹
##撮影
##統計
##貨物
##資源
##orm
an
ねん
アキ
トウ
多大
役職
旗艦
符号
良好
買っ
ヨーク
レンズ
##ジメント
それほど
ショップ
ラッシュ
コンクリート
こく
とか
上空
代々
右側
同校
知名
##マール
エスト
責任者
....
アーサー
咲
AD
体調
友好
大戦
島根
歌い
浦和
建築物
本当に
ランクイン
##インターチェンジ
##yn
豚
##ほう
03
ha
上手
党首
図書
大山
毎月
ディス
マンガ
先住民
医薬品
小笠原
Fran
Google
ケンタッキー
ステーション
##ハル
##判決
##資格
他方
全車
冠し
右翼
突撃
背後
視覚
記す
##ゲット
AFC
一時的
フランツ
ムスリム
分かれる
スティーヴ
エレベーター
##ava
TD
おう
住人
合戦
探偵
経歴
骨折
##ドルフ
118
アイヌ
チップ
テクノ
広まっ
自動的
コンクール
斑
##医学
##電機
乗組
前線
加熱
台北
好評
幹事
正義
##ウンス
##ナーズ
##ブリン
誕生日
高まり
##ンジャー
受け取っ
叫
遼
##の日
##クイ
##タス
ちゃ
先進
機材
狩猟
釈放
世界観
コーヒー
判定負け
引き上げ
TOKYO
ゃ
吾
##ung
SO
世間
出荷
安倍
見事
##セッサ
##ッピー
##パール
Ste
不定期
関わり
アルメニア
呂
坪
##たら
##カム
##横浜
##.5%
##ank
地獄
大井
望ん
近藤
電化
)」、
ずっと
りゅう
ホラー
詳しく
##スタジオ
##モーター
シュート
日本政府
Music
ウェールズ
Twitter
了
坊
弦
烏
苗
遣
##ラフ
##結果
DD
JC
久保
司祭
大内
宮内
巡る
工夫
文政
最長
模型
王妃
磁気
自国
芸人
週末
遅く
食用
IBM
どんな
クルー
リトル
名乗り
宇宙船
敗れる
知名度
競馬場
##ッチャー
ファンタジー
プロデビュー
壮
##たか
##まし
##山駅
sh
代数
回路
失う
指令
採掘
教養
明け
農地
運搬
面白
食い
127
協議会
##ソックス
やってき
ガソリン
倫
塾
巧
膝
##ナラ
##成長
##ric
三木
北軍
南京
手伝
押さ
理念
金銭
伝わっ
幅広く
教科書
##リックス
セカンド
引き起こす
ヴィルヘルム
汽
豆
##ぐり
##玩具
出張
南米
法学
習慣
造り
集積
##ブライ
101
Mic
ゲート
ラリー
先駆け
南東部
経済学
##ッシング
System
データベース
径
芦
##ムー
##ュル
##切る
##力学
エフ
愛好
技師
支線
熊野
虐殺
赴任
進軍
##エンド
##当たり
105
pro
サイン
出会う
加わる
右衛門
見直し
越える
郵便局
都市圏
##ケドニア
LIVE
自由民主党
琴
##戦艦
##渡さ
##第一
##ott
BL
ゴー
先代
内外
制圧
東武
流出
神殿
進展
##ニーズ
##プレー
##右衛門
テープ
ペット
博士号
最下位
珍しく
##コミュニ
##スーパー
スポット
アトランタ
カップリング
##GB
搬
秒
##ウイ
##外線
##密度
##水道
SL
be
ちょ
助言
噴火
発祥
阿部
##チェン
##ッサー
##ハーン
119
フォン
ペルー
リメイク
日本海軍
慶應義塾大学
峰
賜
##ます
並べ
中佐
偉大
堆積
声明
好ま
救済
認証
順調
##ミール
##ラーリ
##ound
アリス
ゾーン
トニー
ドミニ
リッチ
世界初
ドラえもん
##ム級
##協定
##指導
##ood
ED
mi
か国
こだ
保健
初日
孤立
払い
抱き
母体
民事
車輪
りょう
プレス
敷地内
##リティー
オックス
##ae
##ps
剛
敏
##事者
##短期
みや
アバ
キハ
南朝
同市
図ら
推理
用水
苦し
触媒
起工
闘争
Blu
よって
ソース
##ジャージー
ユーゴスラビア
フィギュアスケート
##.9
##まち
##期生
##楽園
##ult
ワル
制服
役者
繊維
連動
再開発
東北地方
エンジニア
イギリス海軍
##ai
裸
##けい
##スピ
##ポル
##ムシ
##原町
いろ
ぶん
不詳
動機
商標
女神
有数
正月
混同
直轄
貨幣
農場
##ネディ
2.0
いつも
レール
ロータ
##マックス
1869
カンザス
ワンマン
ボーイング
リーグ優勝
アレクサンドル
##sk
【
洛
##ラウ
##ATO
##ree
みち
仮説
実態
展望
干渉
水路
総会
間接
115
視聴率
親しま
1800
アプローチ
スクリーン
セントラル
寮
惨
##ゥス
##世保
##互い
##北区
or
再興
博し
撃退
真実
矛盾
見送
車庫
門下
##ラード
お互い
クロー
皮切り
リゾート
セッション
##EO
奮
湧
##タゴ
##公国
##前半
##iel
PV
ギル
上方
体内
倉庫
化粧
天下
探索
さくら
##テイメント
キーボード
コンパクト
ダイヤモンド
##GA
*
尿
瓦
cm
和平
復旧
改築
##トリー
##番人気
10%
グラス
ハーフ
ベッド
##プライズ
1878
粗
##ョウ
##着い
##row
アメ
テネ
ヨハ
国産
持続
有罪
立憲
老人
踏切
運ば
鉱物
パレス
ブック
ペース
日本一
1600
修士課程
】
囚
枯
蹴
##ヘル
##ise
京王
仮想
任さ
光学
南軍
回想
欠点
演算
神々
薬剤
診療
##アート
##ッタン
##プライ
瀬戸内
グレード
マラソン
西ドイツ
嫁
##管区
##総督
##陸上
##願寺
カ国
切断
大敗
好み
捕食
早朝
格納
残存
赤字
##データ
##olog
109
アウグ
明るい
歴史家
##エンター
##MA
嘆
漫
胃
##列島
##ail
Gr
タキ
チン
デル
不利
倒産
年末
着工
自称
軍用
##キック
##トラン
##ブルー
##ボウル
アンナ
含める
神奈川
行なう
クリスト
東アジア
##ガニスタン
ストレート
##ッカークラブ
##スマ
##付い
PL
下げ
付随
代行
吉本
手前
砲兵
組ま
角川
輝い
首席
##ウォー
128
MVP
com
在学中
支える
1860
傑
陵
麓
##ベラ
##実験
##歌劇
##現象
Dr
Su
ふた
リク
京成
供用
生前
発信
##郵便局
宮崎県
過ごす
しながら
ルーキー
グローバル
##SC
戴
##の大
Is
かみ
サス
伊東
前進
地面
望む
歌わ
異動
競輪
赤色
郡内
陸奥
360
パイプ
医学部
新日本
難しく
with
プレゼント
靴
##に関
##シカ
##島町
##itt
シチ
台詞
学院
左側
浸透
用地
砂漠
ダーク
ハリー
ヴォー
##フェルト
ハインリヒ
蒸気機関車
アフガニスタン
國
顎
##二郎
##立た
##製品
##評論
OP
Pl
マカ
所得
掌握
根本
辞退
露出
##イムズ
##ミック
Ass
もはや
ミュー
メリー
##ジャンプ
##ジュアル
1882
に当たる
ニッポン
学校法人
航空会社
ニュージャージー
袋
##京区
あさ
ブー
必須
忠実
産地
自作
邸宅
##エンス
リレー
危険性
編集長
自身初
##に関する
##短期大学
フェリー
モジュール
ウルトラマン
フットボール
惜
椎
菩
##予定
##沢市
##理事
##anc
出口
利点
告知
師匠
本数
WBA
きゅう
ウィル
サーバ
国民党
テレビ局
全国大会
フロリダ州
国土交通省
YouTube
詰
(=
IV
函数
学士
小売
志願
総務
越後
##大学院
149
AKB
いない
カート
マリオ
犠牲者
老朽化
1863
1881
##ボクシング
ブライアン
レーシング
庫
樺
##オリ
##グマ
##谷区
勾配
十二
合う
聖職
重い
題名
##クロス
ブリュ
マスク
ワーク
太陽系
研究会
##民主主義
##社会主義
Java
大日本帝国
##63
戒
痕
##並み
##orn
BR
Qu
モロ
増設
差異
微分
菊池
長州
領有
に際し
クレイ
##サイクル
1875
相互作用
##キュリティ
ジャクソン
マンション
......
兆
帽
鉛
鐘
##だけ
##製作
作動
市域
弾圧
津波
玩具
真っ
胞子
討ち
##ビッド
##レージ
##ance
All
JST
スキル
ボード
ローズ
##ディーン
メニュー
現役引退
惹
祐
裂
##ブー
##打者
##水系
Ge
is
きん
宮城
帰り
抜き
書簡
栄え
決断
環状
生育
道場
重点
閣僚
ドレス
出入り
##ストーン
##フランス
##ition
スタンド
ヘッセン
ハーバード
パキスタン
サウンドトラック
##ys
凶
害
敦
涼
賀
鳩
ナン
両側
依然
倒す
奪っ
植え
極東
正常
相違
誤解
諸島
##エリア
##キース
##リッジ
##ドラゴン
##ヘビー級
##社団法人
さいたま
なかなか
リスナー
記者会見
フランス人
##me
袁
##ある
##の中
##払い
##番手
MH
しょ
交際
今川
出雲
太守
広東
従う
成る
産出
高価
黒田
##ザー級
##ount
BBC
かかり
めぐる
キック
フィル
中でも
暮らす
最寄り
裁判官
1876
Love
##af
##の会
##企画
##候群
##配信
##enn
Gu
あん
予告
原始
婚約
客室
無し
##ストア
中国人
同時代
抑える
明かし
経営者
ちょうど
サンディエゴ
##しゅ
##気候
##oth
メダ
今作
仮定
保育
入隊
再選
写本
定住
岡崎
後日
突如
細菌
緊張
高額
App
国際的
集まる
エリック
国際空港
生み出し
刃
曽
棚
##ッダ
##ロメ
##連隊
##道館
##PER
##ley
9.
iP
こん
そば
一角
不振
原稿
可決
投球
教徒
松山
松田
正統
開店
高温
##クチン
不思議
携わる
最終戦
##ケティング
最高裁判所
##UT
庵
磐
詠
##アリ
##分間
リバ
報酬
天王
実証
家畜
導い
憧れ
襲わ
食糧
##テリア
##ナンド
147
内閣総
創業者
欲しい
高かっ
##ラミング
ハードウェア
倭
曰
潰
郭
##とか
##ツォ
##集団
ハム
下院
告白
後輩
技能
救急
斜面
管区
西暦
##ントス
シフト
バーク
乗組員
人たち
文化的
番組内
通常盤
##タイトル
1874
デバイス
プレート
Linux
##ジャイアンツ
##UE
腎
##ニク
##リヤ
##角形
##高原
El
le
いし
テオ
ボブ
伝記
側近
全土
帯び
急遽
想像
括弧
旗本
町域
築城
##ッテル
##換える
NFL
パラメ
ビーム
国内外
増える
月曜日
目立つ
ノーベル
##タイガース
オートバイ
フェスティバル
プログラミング
##RC
昨
橘
##デラ
##公社
##分の
##様式
##産物
en
バグ
名声
拒絶
支社
整数
焦点
蓄積
迫っ
順序
##サンス
##ネイロ
分かる
決定的
##ミルトン
##専門学校
オファー
位置付け
現役時代
笹
##十分
##原子
##療養
##ash
##ild
PK
WH
上限
交付
北極
援軍
株主
標的
発動
移る
艦船
あらか
入れ替
卒業生
近代化
##フィルム
##付き移籍
##女子大学
##アメリカ人
##アナウンサー
期限付き移籍
尖
曳
飢
##ひろ
##ロド
##寄せ
がち
イル
セン
中小
公募
各駅
因子
家屋
最強
略奪
継ぐ
菓子
追跡
降下
##コック
Air
エンド
カスタ
コラム
気動車
滑走路
警視庁
1883
ドクター
ボランティア
##uk
辰
##タ州
##ピオ
##フー
##収入
##腫瘍
##英社
GR
出典
渓谷
生年
追求
遺構
還元
郷土
重傷
非公
##わしい
##デント
##ファミ
ランプ
三丁目
乗務員
高知県
##フェンス
##ブラウン
1877
もたらさ
繰り返す
##シフィック
アラビア語
機動戦士ガンダム
##づき
##出身
##整備
##秀吉
##統一
Fl
はい
キム
在日
大東
寄贈
従っ
打っ
松井
氏族
決戦
異例
社内
細長
薄い
賞賛
起動
##エクス
サンド
ティー
哲学者
音楽家
##リントン
1200
アピール
ミシガン
イラストレーター
オックスフォード
##yd
範
##キノ
##サム
##新宿
##iam
Ac
うた
円形
大切
婦人
常陸
心配
素晴
色彩
遊撃
陣地
隊長
##ラート
##ject
117
アリゾ
シニア
シリン
##デリック
1862
シベリア
##LD
稽
脊
##ごう
##んが
##ヨー
##不詳
##意識
使え
書類
木曽
済み
荷物
##グアイ
##トップ
107
スティ
マップ
副会長
収録曲
感じる
生きる
長谷川
集英社
日本大学
グラウンド
マンチェスター
拾
##こく
##たく
##ェル
##切れ
##富士
GO
くだ
上場
動く
北上
反論
密接
小島
有無
永久
青い
タワー
地上波
無関係
##ステリー
1864
コンサル
##アメリカン
アルゴリズム
カトリック教会
##AI
##ML
黙
##ウザ
##不全
##区域
##整理
##自然
DR
Sm
のぼ
代謝
免疫
小沢
待っ
改組
皇族
計測
起訴
通商
馬力
##ランク
バブル
##チャーズ
##デジタル
##ハッタン
イリノイ
トロント
腸
##むら
##ズマ
ワイ
強豪
我が
本州
浄土
砲弾
総額
背中
自立
補償
駆使
##ords
いった
ウェイ
サクラ
バスク
レアル
佐賀県
参議院
女の子
審査員
小田原
広範囲
##リッシュ
4000
汲
##ギア
##気筒
##INE
げん
先祖
天使
実務
放つ
流さ
盛岡
聞く
誘い
貨車
醸造
##ッケー
##ower
デトロ
ドーム
ミシシ
全世界
##ジャース
スケール
ライダー
イタリア語
バルセロナ
喧
朗
朴
殴
##金属
##馬身
じん
ろう
カジ
世話
付く
回っ
多少
引い
懲役
##タミン
フォル
増やし
所有者
発売元
ドリーム
ジョンソン
所属事務所
School
ソフトバンク
##52
##NN
乃
盟
袖
##ェン
##ニカ
##ロル
##大橋
##崩壊
##所属
ph
ネー
下関
公布
動詞
浅野
##モード
108
首都圏
財団法人
##ジャネイロ
##系アメリカ人
##au
窒
##ずみ
##ポー
##協力
再発
戯曲
測量
独裁
祖先
筋肉
絵本
オイル
ギャグ
南北朝
振り返
楽しむ
1879
コロラド
手がける
パーティー
郡庁所在地
却
掴
曾
託
鶏
##いろ
##ソワ
##挨拶
##本町
##統治
##返さ
ゴル
ニー
主砲
各々
型式
大島
気に
絶え
荒川
##きょう
もらい
放射線
間違い
##53
楠
癌
鍋
##いん
##くん
##変更
##継承
半径
変遷
好調
姫路
慕容
暴動
調節
鑑賞
##ギター
##トロン
148
カタル
佐世保
方程式
##年代前半
Comm
南北戦争
取り扱い
総合格闘
路面電車
エントリー
カントリー
デトロイト
マケドニア
##ネットワーク
オブジェクト
プロレスラー
詞
##何学
##免許
##映像
##水素
##職員
##ons
)"
ふさ
五十
公民
割引
動向
勧告
寛文
小泉
攻勢
木製
特有
硫黄
西南
##キテク
##able
COM
JRA
並びに
##アリング
Open
おこなっ
アンテナ
ランダム
ヴィクトリア
##レク
##レフ
##旅行
##行動
##ata
##out
プル
世論
中東
収穫
徴収
慣習
戻し
投じ
掘り
渋滞
牧野
通知
運び
チャイ
ブレー
##プレート
コーラス
ポケット
ワーナー
世界最大
高い評価
フェラーリ
ケンブリッジ
##WS
辻
##の駅
##クー
##月上
NO
RE
てい
一橋
右手
嘉永
大砲
政務
曰く
育ち
革新
139
マット
入り口
再放送
大久保
安全性
行える
##スタイル
##トリウム
##ファイル
1867
シチリア
##ディズニー
オリックス
##ダス
##合併
##時計
##ake
"-
ぜん
他国
多岐
摂政
政界
日露
築か
聞か
道徳
##ward
キエフ
活かし
##ジェット
##ミニウム
プロ入り
アナウンス
ナレーション
##AND
##hel
##ics
MT
ウズ
一門
保っ
兼務
樹木
生没
過激
##ノベル
すると
百貨店
テネシー
朝日放送
##カロライナ州
尻
窮
隷
##導体
##早く
##総長
##落ち
まい
ロイ
乗る
容器
恐竜
##カーズ
##ライフ
##年不詳
##月上旬
##ames
パンチ
発する
記念碑
音楽院
##フェリー
100%
8000
エッセイ
オットー
ダービー
上院議員
従五位下
タイミング
初回限定盤
生没年不詳
ヘッドコーチ
叶
忌
##レア
##内戦
一行
三好
就く
広義
日程
水源
法則
演習
火星
石垣
視察
##ンスク
ISO
わから
アルミ
シネマ
ノート
ロッテ
大聖堂
第二次
踏まえ
アンティ
テーブル
文部科学
経済学部
##テルブルク
慢
##制御
##獅子
##食品
##首相
シロ
伏見
伝道
実写
対岸
対空
届け
復讐
愛し
犯行
逃走
銀座
##テープ
##ラーズ
ピッチ
化合物
外交官
直ちに
足利義
高性能
##ティアン
##ンダード
6000
グラビア
ヘビー級
明治大学
##ラクション
##57
宰
クハ
出向
婚姻
数少
機銃
液晶
特攻
狙い
系図
累計
膨大
選び
青木
##ータル
##事業者
##方程式
OVA
ガード
左衛門
##バイパス
Will
##テンベルク
##ファレンス
##HS
婿
##なす
##参加
##合成
##彗星
##条件
##ans
TS
クモ
一次
会見
基部
指標
放置
新生
新興
模索
没後
現職
祖母
豪華
越前
##ナード
##レイン
##ンダー
##レーベル
につれて
フォーマ
亡くなる
欧州連合
ゲームソフト
プロサッカー
ペンシルベニア州
ショッピングセンター
##だん
##むね
##バコ
##対策
##最多
##炭素
##討ち
##ERO
イオ
原田
安芸
擁護
改定
水田
決着
湘南
窓口
通い
グラフ
パンク
建造物
無所属
選択肢
##ダービー
シルバー
国会議員
##レクション
##プロジェクト
スケジュール
内閣総理大臣
鄭
##キル
##ノキ
##iki
]]
はら
グア
不在
半数
単体
弦楽
授け
明石
没収
砂糖
考察
造営
##スミス
##タワー
##レーン
##大阪市
をめぐ
ピット
をめぐって
カテゴリー
ミシシッピ
##AB
##HI
##gen
##own
子爵
戻さ
探査
昼間
気筒
法廷
登記
箱根
訪ね
遠藤
##プソン
##製作所
"("
Art
Gre
みどり
バイク
島根県
留まり
織田信
行方不明
あらかじめ
##AZ
察
辿
##ッリ
##大将
取れ
対称
譲っ
赤軍
##ショウ
##ソール
##プラス
##ローン
Gen
体育館
後楽園
札幌市
移籍後
##キャスト
バンダイ
##ペンション
シングルス
ロシア帝国
甚
##」(
##宣言
##.2%
与党
冷房
出家
後援
志向
控訴
特技
特色
破産
破綻
移設
空手
蜂起
観音
降水
電撃
##ッケン
##重工業
Bar
いた事
バッテ
バルブ
ビーチ
長時間
##トンネル
おおむね
アニメ版
パレスチナ
岬
扶
##ホル
タル
国営
強め
歓迎
水雷
注文
監修
西口
親善
豊田
##カール
アーチ
チェル
ループ
直接的
##ソニック
##名古屋市
アップル
アルバイト
ビルボード
マスコット
日本共産党
テレビシリーズ
フランクフルト
##54
臭
##法律
##生命
MO
一級
奉行
最年
現金
穀物
諸説
高木
##グラン
##リッツ
##放送局
WWE
きょく
生物学
いったん
つながり
マジック
モバイル
##デジャネイロ
ホームページ
日本シリーズ
##59
##ax
##哲学
##声優
けど
もり
ヶ所
冷戦
同型
専修
山城
招か
神学
秩序
諸侯
透明
難民
##キンス
##ビット
##ードン
アーム
ゲリラ
分から
NASA
引き分け
##っち
##ソウ
##バナ
##明け
##議長
##野町
##ara
おさ
ばら
代官
内戦
単式
在来
基金
威力
宝暦
実体
尊敬
耐久
西欧
親族
途絶
##ラール
##警察署
しゅう
1861
スケート
プリンス
江戸幕府
International
##かせ
##さき
##ばす
##ペイ
##ホイ
##ボス
##執行
##観光
##騎士
かな
のび
やめ
カザ
上院
免除
内装
塗り
属性
拠れ
文久
曜日
洗礼
痛み
目覚
講和
遺産
防災
##ットル
Bla
バート
外野手
時代劇
考古学
下部組織
厚生労働
イギリス人
オリジナルアルバム
##UB
鱗
鳳
##戦闘
きわ
にし
りん
メロ
任官
兵衛
反面
合っ
寄生
意志
断絶
管内
紀伊
血管
軍艦
##ミュラ
たとえ
ファー
等しい
親会社
親衛隊
飲食店
NATO
マイアミ
数少ない
レスリング
マンハッタン
##CE
##co
炉
舌
##不足
##競輪
##規制
##馴染
IM
だり
ウエ
係数
党員
少尉
幼虫
抽選
文法
日付
##ちらん
##ズエラ
##川水系
ひろし
出入口
物理学
警察署
##チオピア
ポスター
マサチューセッツ州
##ey
帳
梶
郵
##外国
##当選
あて
エキ
人質
全曲
名門
小屋
柴田
橋梁
洞窟
源流
追撃
進水
##デール
##トリア
##レータ
ジェフ
トルク
ハンス
投票率
日本側
表題曲
サイクル
ジェリー
ムハンマド
##ソフトウェア
##DC
嚢
殉
##伝説
##ode
##ual
カウ
ジー
ロマ
特番
破損
転落
除外
難易
骨格
##チョウ
ビュー
ミラー
幼少期
最盛期
##セックス
##フォース
7000
国立公園
##デンブルク
カタルーニャ
サッカークラブ
庇
憎
眺
胎
##建設
##醍醐
Mi
えん
めい
よば
エコ
ハウ
古巣
天才
日蓮
最速
標識
造成
##トラー
##ピット
50%
アテネ
半導体
振る舞
満たし
結婚式
評論家
##ブリッド
##ンジョン
莫
##ロイ
##制覇
##que
オマ
ヘイ
主将
仲介
体力
元来
入会
南端
横綱
管制
築き
芝居
遂行
野田
##ーゼフ
##rist
Gro
交わし
副社長
正しく
鳥取県
##リオール
1865
ライブラ
オハイオ州
アドベンチャー
アルファベット
詐
##わす
##資料
さか
ツイ
一等
休養
同誌
奪還
抽出
本田
殿堂
##ダース
##ニール
##中央区
ジョル
セルフ
マニュ
神戸市
##ウイルス
ドナルド
取り扱う
コンピュー
愛知県名古屋市
シミュレーション
籍
##制限
##橋市
##福寺
DO
カメ
同局
悲劇
所管
木曜
横山
複素
複製
要し
解明
高麗
魔女
Hot
ゲージ
ダート
ヤマハ
ラップ
多目的
成し遂
難易度
ワイルド
取り戻し
##マーシャル
ターゲット
##ソングライター
プロサッカー選手
##ラミ
##予選
##五輪
##勢力
##南省
##回る
##抜け
##相手
kg
アッ
ソル
住友
元和
公衆
和名
多額
大橋
拡散
有馬
王族
生え
痕跡
積ん
聖堂
聞こ
話者
高崎
##オーネ
##ザード
##プラー
##ヤング
##リーニ
##ートー
106
Inc
聖職者
見舞わ
##クトリー
1850
カウント
世界各国
週刊少年
エチオピア
マドリード
アメリカ陸軍
談
鴨
##がわ
##哺乳
##商業
##書紀
てつ
まれ
保全
告発
太鼓
形容
挿絵
混ぜ
知れ
紙幣
脂肪
西村
賠償
麻薬
##ハート
##パウロ
129
ウズベ
グラム
小田急
民営化
##ement
メロディ
追い込ま
バッテリー
##KE
##回し
##方式
##訴訟
FR
レシ
元帥
喜び
天平
激怒
迎撃
関節
##ザール
##ストリ
##ピング
##式野球
##電動機
116
MBS
クール
ビリー
取り除
真珠湾
Live
カルロス
ライオン
キャッシュ
ウィリアムズ
コンスタンティ
儲
##ゆう
##訓練
うつ
くま
はん
リベ
一斉
低減
元老
勝手
合体
名詞
射程
左岸
旋回
染色
水分
水面
氷河
永遠
津軽
種別
近接
阿波
階層
##ゾーン
##ドライ
##ナール
レオン
取り壊
巡洋艦
当事者
抱える
ドメイン
少なかっ
##カンパニー
プレーヤー
##スターミナル
崖
##っこ
##ゲイ
##プー
##ロア
##博士
##.1%
##ius
なき
みつ
先述
包括
叩き
執り
川越
幼児
汎用
特筆
納入
##lass
Net
』)。
ソ連軍
ロール
代わる
離れる
##ヴィッチ
LOVE
オレゴン
チケット
##SS
凌
肯
蓋
##さつ
##の党
##れん
##アウ
##ラシ
##山地
##書房
##ERS
みず
一面
中京
中型
人格
保つ
公使
刻ま
天神
慢性
捧げ
有人
校区
生体
石田
種族
苦戦
誘拐
連装
##武天皇
ニンテ
バット
信頼性
求めて
芸能人
ニコニコ
興行収入
ドイツ連邦
刈
懇
##かつ
##クシ
##III
でし
一説
八重
召集
寄稿
思考
療養
誇っ
遺族
駐在
Cor
らしく
ダイア
内務省
分ける
目立っ
##マラソン
アパート
ラーメン
##ミッション
大統領選挙
ヒューストン
##HC
##pl
伐
潤
##らせ
##タケ
##興業
あや
コマ
デラ
中性
大津
線形
襲名
遮断
重臣
食堂
##サーチ
じゅう
東京府
決まり
精神的
##チャート
##フェース
##協同組合
たくさん
ドラマー
パロディ
日本書紀
明治維新
朝日新聞
##地方裁判所
シンガーソングライター
舷
賑
##くる
##ばさ
##コク
##ヶ丘
##保安
##団地
##box
争っ
僧侶
別々
廃棄
教官
系譜
融資
要員
調教
遡る
順番
##パルト
##ボルン
##選挙区
##roid
同性愛
好成績
社会党
1848
Bill
シアター
特別番組
##FM
易
浩
##ごと
##エリ
##モロ
##危機
##西部
##rad
.,
ウイ
ハド
ヵ月
哺乳
工程
拳銃
探す
教団
書物
武力
海戦
神宮
腹部
飾る
魚類
##ガード
Med
けんど
グレー
サロン
フロー
##ンタム級
##enter
宝塚歌劇
情報番組
##キテクチャ
エストニア
ベネズエラ
メダリスト
ロシア連邦
マイナー契約
凱
憂
肌
##芸人
ブン
人文
保障
利根
動い
双子
商船
基幹
変異
安田
想い
投下
母音
直流
精力
肯定
藤井
野外
##パック
たどり
決まる
さらなる
ストップ
商業施設
朝鮮戦争
民主主義
##ストーリー
スペクトル
##フィールダー
寧
##ソス
##通し
Pa
sc
くら
コウ
ボイ
単発
名人
国旗
大塚
尋常
帰る
平地
成熟
発現
盆地
稽古
長岡
陰謀
首脳
##んじゃ
##プリン
ナポリ
マニラ
不十分
戦時中
頭文字
ジョセフ
ブリッジ
ブルックリン
##チャンピオンズリーグ
猟
##あき
##エロ
##信号
##対抗
##ett
DF
Pe
SA
えい
サハ
バナ
ラト
凍結
地盤
大同
太子
当社
揃っ
救う
曹操
異名
若年
調子
釈迦
##ンステ
##委員長
##等教育
LED
Sup
アミノ
ルーム
自由党
アメリカ合衆国国
諦
隅
##小路
(-
SN
ar
ひら
予言
任せ
優勢
大友
大谷
小麦
推し
新羅
検事
点在
煙突
狭く
臨ん
迫る
追悼
##ニアル
ヴォル
初年度
クリエイ
サンクト
ステレオ
ニコライ
アルバニア
アントニオ
参議院議員
##ポレーション
クリスチャン
帆
樋
蕭
##ヶ原
##ink
##osh
おと
たん
佐野
巡回
打た
日活
殺す
深め
爆破
生ん
退却
逸話
飯田
高地
##コント
カレン
パック
支払う
##ートルズ
アラスカ
古代ギリ
ジェイムズ
ニッポン放送
覇
##ウリ
##サギ
##北部
##榴弾
##製造
DE
ex
免れ
属す
採取
播磨
特権
石原
荒廃
誇り
講習
##ップス
##ミー賞
Rob
でしょ
メタル
時には
長期間
最高速度
##デザイナー
アルミニウム
マイクロソフト
‐
ぴ
哀
廻
##の丸
##ぶん
##ゴス
##ボウ
##交換
##焼き
##連敗
##.8%
あお
ナチ
元素
制式
厳格
国体
国分
本物
死に
誘致
駿河
##の自由
##イクス
##ステン
##ビアン
Met
広島市
減らし
福岡市
しっかり
ライター
人口統計
スターリン
インディーズ
フジテレビ系列
佳
廉
泳
粛
迅
##ヶ谷
##友会
##方面
##ACK
##ini
-』
As
au
しき
プエ
中頃
会館
初出
多彩
山内
徴兵
明記
退い
##ッケル
##ボート
##左衛門
Par
エスカ
ブレイ
世界一
シアトル
ビクター
ボスニア
ルネサンス
フォーマット
##アニメーション
ミッドフィールダー
##pm
ょ
盾
磨
褒
##さと
##じっ
##の森
##ばん
##庁舎
##田川
##ita
ヘー
伊予
太平
宰相
所要
抽象
本尊
親王
趣旨
進路
適合
##ニウス
##ミュー
##物理学
##ream
138
750
及ぼす
1866
ウエスト
ミズーリ
##ウィリアム
プライベート
ラインナップ
##HT
−
刷
恭
惣
漆
##サラ
##娯楽
##項式
もん
セグ
ノイ
ミハ
不法
公卿
嫡男
封入
左手
愛国
熊谷
狙撃
王女
英文
薬師
誰か
静か
食材
##テラン
##ニアン
##ワイド
20%
わたし
チェロ
デッキ
マウス
ミネソ
ヤマト
上回っ
仙台市
副作用
収める
研究科
英語圏
##ジャック
いかなる
世界各地
日本国外
バージニア州
ユニフォーム
ブロードウェイ
障
##勲章
##帝侯
##平和
##貴族
##ino
##ype
LP
RA
ケル
ジン
侯爵
借金
出航
右岸
娯楽
岡本
田園
確信
育つ
裕福
高層
##チンコ
##ナート
##ネスコ
##ンジー
##ーツァ
##社会党
450
Her
WOR
ティム
ファル
技術的
擁する
##ブリック
ショック
マウント
国際大会
##世界選手権
シリンダー
タイアップ
ディスプレイ
プラスチック
##インターナショナル
##トス
##乗り
##投資
##押し
##納言
NS
sp
お前
きり
世襲
代用
内田
基調
失脚
樺太
歌謡
民放
水野
汚染
準じ
田舎
組成
転写
遅延
アンソ
ゴジラ
バレン
プラハ
ロープ
地方公
工学部
はじめて
インテル
ショット
組み立て
マーティン
セントルイス
ルートヴィヒ
##XT
緒
##ガメ
##城市
[[
交互
介護
川口
提督
於い
日向
書店
本書
片側
直結
縄文
##きゅう
##テール
##ユース
Wii
ディー
宗教的
表彰台
##ワークス
ナイター
筑波大学
高速バス
##ペテルブルク
亭
淀
輔
鷲
##モノ
##リシ
##営利
##売機
##指定
##曖昧
##結合
##美子
AB
VS
すす
ラジ
三条
下さ
友達
換装
深さ
笑い
進撃
NPO
RPG
セブン
ノット
ボルト
八王子
宣教師
悩まさ
設ける
##ルター級
意味合い
##ジョーンズ
セキュリティ
拉
舗
##司教
##名詞
##天堂
##爆弾
Ro
et
ナビ
国籍
好意
媒体
寸前
応え
挨拶
撃ち
旅館
社殿
群れ
鋳造
集約
面会
」)。
ウィキ
グッド
グレン
正教会
芸能界
##シアター
##ホワイト
マガジン
労働組合
打ち切り
日本全国
中国共産党
アイドルグループ
珠
脆
茅
蛍
錯
##事務
##新人
##ald
##oph
At
FS
HE
リム
佐竹
体操
参事
大成
導く
座標
慎重
断っ
暴走
曖昧
東山
武家
西鉄
##ブレー
##プラン
)」「
MUS
Ver
ターン
デュー
理事会
クイーン
ノルマン
完全移籍
日露戦争
SUPER
デヴィッド
Android
溜
##ネタ
##遅れ
EM
たた
シグ
両端
以南
会い
古河
台地
宝石
宮本
常磐
平坦
改宗
松下
減っ
漫才
無罪
狙う
鎮座
##デート
##ルーシ
##ンドウ
ref
こんな
ジェネ
ピッツ
ブロン
教える
留学生
繋がる
通じる
##シュート
##ホークス
入れ替え
バリエーション
##LS
桓
躍
黎
##ばら
##ゃく
##ボリ
##犯罪
##面積
##ome
Mc
On
オム
リヒ
レバ
公職
分断
反し
吉川
向い
含み
国政
多発
始発
宇治
挟ま
教鞭
新曲
歩道
消失
王室
直営
背負
追う
退け
金剛
##タイア
Per
ストラ
ユーザ
非公式
##財団法人
ブラッド
手掛ける
フラッシュ
フランシス
スタンダード
##ぼう
##カ月
##ボロ
##ene
GS
なが
ゲル
中尉
主権
令和
南下
収蔵
喧嘩
売買
正室
激化
犯し
留め
皇室
破棄
組む
陥り
集結
高原
##ジング
##ラビア
##ントロ
Res
カリブ
シェル
定期的
支持者
##学研究科
##酸化炭素
受け継い
ジョーンズ
デビュー作
ローマ帝国
##コンクリート
レギュラーシーズン
ン
亘
墨
岳
棘
##ナギ
##水産
##留米
##衛生
##進党
##.3%
MF
不調
会っ
分泌
城壁
届か
抹消
本家
満ち
石灰
秋葉
置換
羽田
西端
酒造
##シード
##ディビ
バイト
初当選
##タイムズ
クラーク
ジョニー
ビタミン
乗り換え
日本語版
##ライオンズ
クイーンズ
バージニア
フランソワ
アンドリュー
コンピューター
ハーバード大学
##CO
μ
卸
塊
##オケ
##仙台
##南部
##収容
##町駅
##ife
##rit
ギア
ホセ
占拠
国語
奇跡
対馬
断片
機雷
歩い
混雑
県都
真空
秩父
見学
負荷
資材
間に
##ジョー
##ブリー
##評論家
col
オース
伸びる
参謀長
##ニッポン
ボイラー
ニンテンドー
##64
嘘
灌
芽
貰
遥
##記者
BD
DM
We
だし
ラバ
処置
古来
土器
墓所
大地
幸福
掲示
撤回
硬貨
花火
##ベニア
##ラーゼ
##ローブ
##ンジュ
##ings
あいだ
ローン
大学生
詳しい
Amer
ダンサー
リリーフ
スロバキア
##ピレーション
日本の漫画家
##ma
摘
諮
賄
##ツー
##南市
##札幌
##東海
##橋駅
##ble
##res
It
互い
元気
八戸
公転
含有
四方
囲碁
嫌い
工芸
忠誠
本堂
発車
直面
着任
那須
防空
##ator
137
Tom
あげる
グレゴ
ジェノ
レッス
及ぼし
心理学
メリット
パナソニック
レンタル移籍
ぷ
癒
絹
##のり
##ノコ
##手段
##歌手
##警備
##ger
RC
by
ピー
亜種
公明
公正
利便
前部
国務
大関
太郎
専務
平等
待つ
待機
無償
牝馬
起因
近辺
香り
##サレム
##ックル
##ルツェ
ツイン
停車駅
出身地
切り離
大相撲
見出し
非常勤
ゴールデ
ゼネラル
見つける
##UC
##du
{
丈
冥
坑
枕
##げん
##コブ
##ノル
##休み
##紛争
OB
エウ
サト
レク
主翼
交え
内務
内藤
宣告
役目
手続
行進
警官
##ットン
##パクト
##リッド
##ーグル
いくつ
たかっ
乗用車
北条氏
外国語
映画祭
細かい
繋がり
青少年
Inst
そのよう
ゆっくり
ベテラン
平成元年
毎日放送
金融機関
エンディングテーマ
##td
紡
藍
麦
##ケア
##ler
NG
un
倫理
増殖
大森
奥州
専任
急性
採っ
新造
明日
返り
飲料
##器時代
##有鉄道
ウラン
グッズ
ポンプ
仕上げ
木曜日
野球部
High
ストーン
受け継が
成し遂げ
##ステルダム
王座決定戦
ハイブリッド
モントリオール
歪
##のぼ
##ジム
##経営
##.6%
##red
IR
SR
中古
交点
以北
使節
受託
名残
天気
川上
常設
弥生
改題
春季
水曜
玄関
産卵
立た
立案
解答
貯蔵
駐留
##ホルム
##ンドロ
##約聖書
##ater
##illa
One
フィー
フロア
取り消
気に入
現在地
##コースト
パーティ
ウォーター
パラメータ
メジャーリーグ
##位置
##方向
##蝦夷
##ict
FL
くり
せき
バリ
一新
及ば
固体
地表
大河
山東
政令
次回
母方
法政
説い
辞め
都心
##ガンダ
##シャワ
##ビーチ
##ブロン
##ライス
パナマ
活性化
##タレント
##ブロック
スタメン
知り合い
豊臣秀吉
ラテン文字
Micros
サンクトペテルブルク
閏
##利用
##回っ
##大名
##思想
##次官
##満了
##禁止
##電子
##irl
Ag
EN
Mo
去る
幾度
延び
待合
必殺
楽天
灰色
祝日
等級
賛同
##ヴィエ
不可欠
美少女
軍事的
##リンゲン
Stud
##ファーレン
##ーツァルト
一般社団法人
クリーブランド
マーケティング
##DF
##IE
狼
萌
##交響
##国民
##家族
##方形
##維持
##.4%
##ari
AG
おは
リモ
五輪
休刊
功労
射殺
小隊
屋外
左派
有用
行か
襲い
詐欺
食物
シンク
タバコ
ビルマ
ホット
写真家
徹底的
東京市
試合後
シンプル
一橋大学
折り返し
普通列車
##ジャクソン
ハミルトン
依然として
アイスランド
##BN
租
##では
##らっ
##ヴル
##屋敷
##違反
##顧問
##OCK
##lex
しろ
十両
合わ
器具
外し
居城
朝倉
未明
楽譜
狭義
病死
継ぎ
舗装
軽い
風俗
##づくり
##ランカ
##ワイン
どこか
カザフ
チーフ
パチンコ
リンカーン
南北朝時代
フランシスコ
##ru
恥
##レナ
##単位
Sk
ぐん
ガラ
中原
安土
指数
架け
検定
空き
負う
迅速
##コスロ
##シネマ
##ジュー
##タンク
##ビール
ある時
みなし
共同体
尽くし
##チカット
きわめて
やって来
ホイール
ロジャー
鉄道路線
音楽活動
チェコスロ
##ディビシオン
大阪府大阪市
プレミアリーグ
Microsoft
匿
窯
##が丘
##っぱ
##動員
##各地
he
あし
ハマ
余裕
信徒
分配
奇妙
幕下
普遍
木星
末裔
水深
治水
荘園
補充
視野
##アンス
##ードル
##大使館
執政官
大使館
柔らか
ダイエー
住居表示
スティーブ
プロセッサ
重要文化財
##リューション
サスペンション
或
渦
究
##動画
##回路
##部作
##IDE
##ato
Bo
ぞう
ヨー
住吉
佐久
入選
商工
園芸
塩基
湾岸
皇子
知人
薄く
西岸
許容
訳さ
賭け
遺言
高雄
##コンビ
##ムビア
##航空隊
キット
リヴァ
天文台
##ニッシュ
アドルフ
アリーナ
グルジア
大きかっ
平方キロ
自分自身
##レンジャー
キリスト教徒
アレクサンダー
National
##PC
嗣
沸
隋
##句麗
##大社
##祭り
##mer
##ute
##way
FO
JA
こい
アジ
クォ
ミン
事象
充分
宛て
小児
崩御
手塚
民法
鳥羽
##マシン
##モンテ
##ラルド
Eng
どおり
ひがし
ホスト
メディ
乗車券
放射性
見つか
##ロンドン
##board
1858
ネパール
ブリティ
ヤクルト
コネチカット
フォーミュラ
平方メートル
チャンピオンシップ
云
靖
頓
##イー
##カレ
##バレ
##介石
##俳優
##松市
##無線
##集落
ちゅ
わか
ケー
中枢
低地
全集
凱旋
加算
原爆
国々
地主
官職
実に
対外
年金
式典
役人
感動
成す
戦果
接収
整え
海峡
自家
遅い
運ぶ
道中
酒井
##チウム
##バージ
##バーズ
##交通局
にくく
爆撃機
高齢者
##バイザー
ブレイク
作り上げ
##スティング
ギャラリー
マーシャル
リアルタイム
レギュラー出演
リオデジャネイロ
##rd
〕
穂
虹
##影響
##瀬川
##農業
サヨ
井戸
天明
対話
山間
平定
情熱
掃海
採ら
放ち
村田
概要
次期
河野
留守
移送
総数
自伝
赴い
遺物
金子
##セデス
##レンズ
CEO
des
触れる
##ガーデン
どうして
テナント
##ルツブルク
ギリシャ語
素晴らしい
マネジメント
##YS
倣
奔
棲
##おう
##の変
##スケ
##打席
##ART
##alk
##vel
イヌ
ピク
一見
丹波
収束
尾根
幻想
強盗
意欲
意義
日系
歩く
水泳
録画
馬車
##コット
##ダーズ
##トレー
##上がる
##収容所
Dav
エリー
ジュー
ハイド
ハノー
互換性
助ける
増やす
数学者
武蔵野
##アリーナ
##ガレット
##ドライブ
##ボクサー
なくなり
サイバー
バッファ
ユネスコ
差し替え
発掘調査
アルバート
デビュー戦
アカデミー賞
衆議院議員総選挙
##</
縫
飽
##スワ
##共同
##平野
##.9%
くん
しの
イチ
ウー
不適
中堅
中田
争う
名所
奉納
好む
寄進
局所
延喜
採集
時折
浅い
称賛
計量
貼り
近似
連ね
連勝
遂に
離陸
##アプリ
##コーン
##スタフ
##下ろし
##博覧会
##子会社
##替える
##標準時
ニール
ヒンド
ロビン
元老院
思い出
蒋介石
貴族院
##ミントン
##ATION
イニング
シャープ
ユニオン
合わせる
生き残っ
ワールドシリーズ
〔
##完全
##.7%
BC
YO
うか
かえ
つる
クビ
ネコ
公家
北緯
営む
報復
寿命
永井
注ぐ
火曜
獅子
獲物
留置
破る
血統
調印
通報
##ブレイ
##ペスト
103
ステン
スプリ
ブリー
ルノー
レイン
落とす
都市部
##フォール
##フレッド
セールス
アレクサンド
クライアント
フランス革命
##だし
##キサ
##国道
##指揮
##継ぎ
##ade
##any
##ony
すい
イノ
侵害
回る
外相
始動
旋律
早々
春に
服装
潜在
課税
過酷
鈴鹿
##リッヒ
##落とし
146
Ele
テリー
文部省
減らす
第三者
降水量
##テライト
ハンター
レスラー
ロシア人
天文学者
自由主義
ブリティッシュ
##コミュニケーション
##KI
##UD
##じょ
##クサ
##グア
##作業
##uck
MR
RS
アセ
タブ
ビン
上層
大江
大石
握っ
支障
断層
未完
条項
極め
添え
準拠
積分
立方
簡素
過半
遭い
##ブリュ
##ボジア
220
240
Ltd
あえて
こなし
アール
ジョゼ
デルタ
ポルノ
止める
歩行者
見込み
造船所
道の駅
##テナンス
カタログ
ハンドル
周辺地域
地方競馬
テレビ放送
ワルシャワ
ロードレース
’
杜
獄
##休止
##四位
##戦略
##歩道
##現場
Do
at
は元
メー
出題
定か
戻す
淡水
炭鉱
燃え
知行
罰金
装填
襲っ
賃金
震災
頂上
##ケーン
##ッテン
のび太
チョコ
最高裁
肖像画
いたこと
ゲーム内
ファンク
中央競馬
楽しめる
##マドリード
スロベニア
ピッツバーグ
榎
##テリ
##会場
##使い
##王朝
##造船
##ENT
##URO
##ana
##inc
CA
Hz
ぎょ
原案
同点
問う
四つ
図り
大連
帽子
派閥
無名
船長
艦橋
葬ら
転身
高圧
##ニティ
GHQ
トリノ
マクロ
第三次
高句麗
##ティウス
##ution
サンプル
サポーター
##エクスプレス
ダウンタウン
ユナイテッド
##we
盲
酢
##スル
##ホマ
Gl
RO
ぼく
下野
促し
家具
暗い
本多
王家
称え
衰え
足り
辺境
造形
那覇
長尾
##ニバル
##ホップ
あきら
つくる
コイン
レバー
公務員
新政府
##ジョージ
##プロ野球
おこなわ
ヴェスト
有限会社
音楽番組
ライブラリ
リクエスト
##サッカーリーグ
東日本旅客鉄道
u
宴
頁
##原駅
##営業
UC
くに
ざわ
じょ
伊賀
体格
分家
安藤
封印
摂津
擁し
本館
青色
##協奏曲
##取引所
Ann
わかり
コンゴ
哺乳類
知らせ
##ホッケー
##ロケット
アドレス
バーデン
モロッコ
客員教授
知り合っ
##ハーモニー
エルサレム
Associ
全国高等学校
##EG
##アト
##回転
##漬け
##論文
##ese
CC
CV
GL
GN
ぼう
コパ
出羽
参拝
反転
戴冠
改変
星野
没年
漏れ
激減
異母
給与
脅迫
至り
長安
関税
飛鳥
##キャラ
##テック
##記念物
##form
ゆかり
ケルン
サード
掲げる
##ウンテン
##フェイス
##ミュエル
##ヴァルト
##管弦楽団
ヒット曲
フルート
レジスタ
成り立つ
生み出す
貨物列車
##ジョンソン
日本国憲法
オークランド
Records
扮
##探偵
FF
ずれ
ダル
一躍
充て
出陣
原産
反省
合法
吾妻
外来
妥協
密か
広州
従属
断面
精密
背面
蝦夷
##サリン
##タリー
##ited
NWA
予備役
明かさ
朝鮮人
裏切り
##ティーナ
1859
Part
シャトル
スキャン
受け取る
引き継ぎ
##コンテスト
##デスリーガ
イリノイ州
メルセデス
インストール
レコード会社
グループリーグ
##チャンピオンシップ
##FO
燕
畳
督
##ぎり
##はい
##教皇
##規格
##観音
##附属
##100
##ane
CB
PA
PP
ac
のぞ
はな
入部
土砂
塩化
外さ
安置
弘前
意匠
担い
旧姓
明示
最悪
東口
混在
経っ
聖人
郡区
##クリス
##ダード
##ハビリ
##ンガル
Bro
MHz
War
おかげ
みなみ
オーガ
ジミー
ヒップ
ヒドロ
研究室
訴える
##クタール
エーカー
オルガン
ゴシック
吹き替え
機動部隊
ハンブルク
受け入れる
##ベースボール
エージェント
##YA
汗
逝
##ピク
##メス
##南区
##後国
##母艦
##高い
##oll
「(
きち
やら
バビ
倒さ
合い
接合
栄誉
狩り
疲労
発想
移す
窒素
途上
連立
釜山
難波
頼朝
##メトロ
##リーブ
##レンチ
126
Int
NPB
WBO
いとう
アシュ
アルト
キン肉
スーツ
セダン
移り住
調教師
##ーグルス
ケネディ
センサー
取り組む
オーディオ
ビートルズ
リミックス
アダルトゲーム
ケンタッキー州
##UL
爪
索
鈍
##の女
##まん
##官房
##fer
##ner
##ral
am
やむ
京浜
休暇
参画
史実
各所
吊り
奪う
寝台
建っ
急死
換算
東端
添加
疑惑
百済
苦労
苦手
親戚
院長
領内
いかに
ついで
つくり
マイン
仕立て
和歌山
支払わ
最高峰
次世代
##イタリア
##カリスト
##グラード
##ストップ
##レンツェ
Star
モニター
日中戦争
連邦政府
##フィッシュ
ダンジョン
文部科学省
メリーランド
日本国有鉄道
##フェスティバル
##KA
★
鰭
##たん
##ガラ
##ヘイ
##国籍
##深い
##sch
ゆる
アビ
エミ
ゲー
テイ
ピエ
同梱
在職
守ら
帰投
常連
服部
神秘
織り
豪族
赴き
##オート
##ッペン
VTR
サイク
ニコラ
下ろし
最大級
水曜日
##ハーゲン
##形文化財
けんりつ
ガリシア
サヨナラ
スパルタ
フォート
カウンター
カンボジア
サーキット
##トーナメント
Christ
フレデリック
##バスケットボール
睡
稚
謳
##ロワ
##光寺
##分析
MB
さす
なに
わが
ゴミ
中高
剥奪
叙任
周回
急増
打つ
父子
経費
読書
路上
銃撃
長寿
除け
##オペラ
##労働者
##port
"、"
まんが
オクラ
ケープ
コーン
同志社
生産量
開発者
##まつわる
これから
テイラー
プロペラ
期間限定
織田信長
関東地方
アベニュー
イスラム教
東海道本線
##ーマーケット
デイヴィッド
William
ニュージャージー州
##//
\
ヲ
晒
##ざい
##じり
##会計
##師範
##関東
##ism
ひど
セラ
モナ
下っ
休憩
兵役
官位
幸せ
志し
故に
有志
松尾
石橋
積載
製鉄
観戦
進言
運ん
遠隔
隷下
領事
now
アイオ
ペドロ
リース
ダグラス
ミシェル
##ーズベルト
にまつわる
アウグスト
ヘクタール
トヨタ自動車
愚
査
纏
迂
##レラ
##琵琶
##西省
代打
何人
切る
友情
名物
和泉
堤防
女流
子役
子音
尊重
山陰
弾き
彗星
抱く
斜め
暗黒
末端
特設
町立
納得
総長
美容
翌月
致命
菩提
##ーニュ
##株会社
102
Off
おもに
ビート
ルター
望遠鏡
植物学
系列局
長い間
##エレクト
##ブルドン
##ンドルフ
1840
ワークス
瀬戸内海
##ネーション
##プレックス
コマーシャル
##ュルテンベルク
##BI
唄
##がみ
##ウマ
##ミナ
##天文
##好き
MA
コク
バカ
府中
性別
有害
池袋
献上
痛め
皮肉
走者
郡域
配分
館長
##アーズ
##サーン
##ワット
NEC
いまだ
ノード
交通量
出場権
四日市
##フェクト
クリミア
ミックス
ルイジア
大学時代
東ドイツ
##ドラゴンズ
WORLD
ステークス
チェコスロバキア
翔
蒼
##てん
##タク
##リナ
##por
GK
われ
処女
同居
安永
投獄
拉致
本戦
温暖
目論
西郷
近海
遠ざ
騒音
##サック
##北海道
Mag
便宜上
全国的
受容体
改札口
赤外線
##ゴールド
1830
カルタゴ
セックス
##スティック
厚生労働省
Univers
ウィンブルドン
ディーゼルエンジン
淳
紐
臼
##コウ
##主教
##仏教
##優賞
##公会
##港区
WE
エロ
列挙
尾崎
常任
日清
特記
真言
絶望
莫大
蔵書
見積
##キュア
##コート
##rans
収容所
持ち帰
架かる
被告人
##ボーイズ
...」
TOUR
ベートー
法政大学
カスティー
カンパニー
メンテナンス
バスターミナル
アメリカ合衆国国勢調査
##価値
##源氏
##葉樹
##証明
##AST
がた
ぶつ
デジ
仕方
協調
原点
召喚
右投
呈し
墳丘
大胆
導き
常時
母国
注釈
覚醒
適当
##ザース
##マック
##大学校
##ents
とある
まさに
コンポ
ディア
バーン
任天堂
火曜日
##イオニア
##交響楽団
ソロモン
引き受け
##ウォーター
アップデート
ノーフォーク
パシフィック
アムステルダム
ケーブルテレビ
キャラクターデザイン
アメリカ合衆国国勢調査局
澤
##ばこ
##ケス
##ザル
##天王
##延び
##気圧
##法則
##越え
##長調
ばん
アデ
ミサ
代役
住職
全滅
劇的
即座
押す
振付
日刊
水産
片方
現し
疑わ
矢野
脱落
調和
転倒
隔て
黒色
##アール
##タッグ
##ツィヒ
##ツキー
##ファル
Can
Har
JCT
Pre
づくり
オフィ
フット
ポピュ
マスト
全体的
持ち主
緩やか
観光地
##ジーミル
##ダーソン
サウジア
バルカン
ヘブライ
レポート
高等教育
に当たって
ソーシャル
ジョージア州
##yo
楚
罹
##ィー
##リバ
##抜い
##菩薩
##返り
##野駅
Mr
いす
わざ
ツァ
ペイ
ボヘ
不信
今井
増刊
封鎖
待遇
後漢
御用
支出
旧来
柔軟
模倣
正解
田辺
白石
目黒
直列
福山
細い
英称
辺り
進入
部員
IBF
Mon
Pol
〜』(
コンペ
動かす
旗揚げ
##ペディア
タービン
ナッシュ
サミュエル
サウジアラビア
##がれ
##津川
##特急
##画家
##運輸
すけ
ドミ
仮名
会派
党内
基質
外伝
大王
実権
摩擦
本郷
生地
真相
祈り
神道
竹内
調停
速い
陥る
##ダスト
アーク
イース
グリー
サント
マント
ロビー
立てる
食べ物
##ンバーグ
カラオケ
ファイト
プエルト
ポルシェ
埋め立て
引っ越し
打ち出し
盛り込ま
##オーリンズ
ロータリー
ローマ教皇
ローレンス
海上自衛隊
巴
盧
萬
##ツキ
##ワフ
##周目
##多摩
##精神
##総会
くじ
キス
不当
培養
寺社
小銃
帰郷
復刻
文脈
木下
津田
潜入
祀ら
納め
線型
腫瘍
賃貸
電灯
##サイン
##ニクス
90%
Rad
von
アゼル
アッシ
シュタ
リュー
多様体
逃げる
##士官学校
##ision
クラウド
テロップ
アレックス
オクラホマ
ストライキ
ストローク
ペンネーム
インディアナ
ブンデスリーガ
##さか
##ゥル
##オラ
##ゲス
##ノム
##リブ
##以て
##疾患
##air
##ave
KD
ヶ国
世俗
伴奏
低温
佐伯
促す
入国
吹奏
急進
暴行
流派
緑地
自信
負債
転送
速く
##ガラス
##シズム
##デンス
##トゥス
##ドッグ
##ランプ
##横浜市
##障害者
いたる
コナミ
サマー
安定性
市議会
枠組み
##キャップ
##ative
オールド
ケベック
学生時代
宝塚歌劇団
ブリュッセル
クライマックス
傭
拷
楼
謙
麺
##らん
##スー
##チネ
##十郎
##現代
##uro
se
te
おん
しげ
ゲオ
ブエ
プー
三宅
化し
北端
大破
天津
宗家
将兵
山麓
巡航
援護
数回
日高
月間
本文
浮世
真田
艦載
表情
通用
魔術
##イトン
##ロップ
##心理学
!!」
いじめ
シード
トミー
リンゴ
レイア
三角形
准教授
専門店
機関銃
苦しみ
##ナリズム
##競技大会
まとめる
レッスン
働きかけ
日本ハム
研究開発
義務付け
チャーリー
##レーティング
ヴュルテンベルク
噛
篤
邑
##口駅
##機械
##災害
##発射
##醤油
):
</
FW
あか
アグ
コカ
コソ
マジ
上洛
准将
北欧
回線
対峙
工房
年俸
度目
後進
拷問
祀る
続行
読ま
返し
離党
##ぎょう
##チモア
650
JIS
Tra
まつり
過半数
インフラ
リハビリ
主電動機
##ニアルバム
##ファーソン
バレンシア
フェルディ
メカニズム
ベトナム戦争
神奈川県横浜市
廟
捻
詔
錬
##じゅ
##まか
##カタ
##主演
##交流
##空襲
##視聴
##設備
##防衛
##let
AI
かぶ
ボウ
写像
出展
前衛
勇気
北口
大勢
大洋
欠け
終焉
結城
脱走
膨張
落成
複線
超人
迫ら
鉄筋
##地方道
104
30%
バリア
ブロー
乏しい
代表者
倶楽部
優勝者
挑戦者
楽しみ
構成員
##ウォール
1854
ストレス
全国各地
自己最高
プレミアム
アルフレッド
ミニアルバム
モーツァルト
ニューオーリンズ
##MO
ぱ
牙
畜
粒
責
##ゲー
##ーダ
##chn
##its
まり
儀礼
克服
出世
収納
売ら
崩れ
平原
役所
後続
御殿
怪物
挑む
探知
教義
秋季
結核
聴い
軍需
長老
##カバー
##サール
##ナイン
##共団体
##山時代
##ydro
Day
htt
を以て
ラファ
不完全
主催者
内閣府
民間人
##ウォーズ
##グリーン
##ヒーロー
じんじゃ
鎌倉幕府
##チェスター
##ツィオーネ
アクティブ
アゼルバイ
ウォルター
ゲスト出演
スピンオフ
ボルチモア
カスティーリャ
##TO
ぽ
凄
斯
粟
霞
魯
##ごく
##ざし
##展開
##汚染
##燃料
##遺跡
「"
のう
ホロ
ラフ
一因
下級
並列
他者
共用
剣道
劣る
勝者
宮中
往来
打診
毒性
渡米
義勇
誘わ
諦め
預け
飲ん
##ダール
##ポルト
##マイカ
##ンスタ
136
カイロ
リック
仕える
創始者
多項式
微生物
書記官
構造物
見受け
重なっ
##フレーズ
ハドソン
リタイア
奈良時代
望ましい
アンケート
ギリシア語
ベストセラー
スーパーマーケット
仇
##たけ
##の間
##ホフ
##和田
##爆撃
##駆逐
##AGE
##ien
##ola
HT
カエ
一宮
人体
傑作
入ら
刑法
危惧
多種
実数
招く
撤廃
救い
新築
明和
格子
法華
演目
碑文
維新
総括
自衛
茨城
高島
##テット
##レーヌ
##百貨店
##eral
40%
つくら
ショウ
トリオ
リビア
原子炉
格闘技
武蔵国
部分的
いちらん
パレード
大正時代
決勝進出
繰り返さ
##ルンベルク
ステンレス
主要地方道
##イェ
##不良
##之介
##如来
##舞台
##運河
##les
##uch
0%
BE
すず
ザン
ゾン
催さ
債権
却下
受注
商用
定時
巡り
巡礼
工藤
強大
抜い
提言
桜井
海兵
犬種
療法
磁場
秋山
算出
転居
連想
鳥居
##んどう
##ッラー
##ューズ
##症候群
60%
CBS
NET
ray
コック
マルタ
担当者
本部長
東京駅
##ャンマー
ミスター
中央大学
引き換え
Super
キャンセル
フェニックス
リングネーム
平方キロメートル
丞
菜
##ハリ
##分裂
##定理
##支配
##行き
##軍人
##ins
CF
おじ
お金
しめ
まき
れん
タカ
バク
三田
医者
古川
国人
大映
崩し
巧み
手順
掘削
推計
暴露
東の
松浦
枚数
河北
終始
重く
##アーツ
##チャル
##マイン
##券売機
BOX
スズキ
マツダ
ルーツ
保守党
富士山
愛する
近づい
選帝侯
##安全保障
1853
1855
行政区画
##イクスピア
##ターミナル
スリランカ
総合格闘技
フィレンツェ
ライトノベル
アゼルバイジャン
Billboard
崔
緯
##ドス
##バオ
##初期
##専用
##強い
##行列
5%
TC
いん
オカ
パワ
モデ
両社
出自
大事
山手
挟み
果て
次女
生誕
腐敗
迂回
造園
部落
香川
##グイン
##ナーレ
##ニカル
##ネスト
##バット
##バンス
##ヒット
550
アポロ
アング
マクド
利便性
強かっ
細かく
終える
##キリスト
##バイバル
ライフル
持ち込ん
教育機関
##ブラザーズ
##マーケット
あくまでも
ディフェン
ポピュラー
ヴォーカル
マーガレット
ドイツ連邦共和国
カリフォルニア大学
其
塁
怠
畠
荻
##がき
##すけ
##ゆみ
##バリ
##通常
##闘争
あだ
しも
スワ
付着
先制
公安
国府
強引
承諾
敢行
火薬
琵琶
私的
空挺
能登
造語
電荷
静止
##トライ
##営バス
##ling
BMW
スウィ
ヒント
フード
事業所
十字軍
四丁目
演出家
細長い
##ショット
BEST
昭和初期
源氏物語
MUSIC
バンタム級
ベラルーシ
ミャンマー
オープンソース
クリストファー
叱
箕
##ッホ
##奄美
##工場
##津町
##軍団
##防止
うけ
ひで
エビ
一大
体長
吉良
失業
富田
庇護
教諭
生殖
発令
稲荷
頼っ
飛ぶ
飾ら
##イオン
##ティエ
##ディネ
##ータイ
##経済学
いくら
まるで
セリフ
マール
リン酸
全盛期
明るく
##ライナー
##通常選挙
グラント
プリント
マイナス
振る舞い
##フィックス
ヒンドゥー
ラッシュ時
タイトルマッチ
ベートーヴェン
##ka
垣
蝶
##あげ
##ぱら
##チー
##仮名
##麻呂
かれ
との
とん
タラ
ホモ
伊丹
大国
太字
妥当
完封
平家
弱く
応答
本殿
椅子
流体
溶け
睡眠
祈願
立川
細部
運送
遠い
麻雀
##まって
##スラム
##ベガス
Mod
Sou
vol
ぐらい
ポニー
ライプ
リバー
ルパン
レディ
加盟国
原作者
同人誌
大司教
新聞社
費やし
##デックス
##師範学校
エリート
ユリウス
文化放送
農林水産
Black
##コレクション
アルジェリア
フランクリン
咸
怖
溢
藻
##ギル
##ゴラ
##ノア
##ノミ
##一揆
##一致
##会員
##売り
Em
さき
上司
体型
例年
内野
北海
執っ
奇襲
宝永
屈指
廃業
操業
未成
様相
歩き
母校
浸水
淡路
点火
舞踊
藤沢
補正
赤坂
雷撃
##ムント
##駆逐艦
##span
かたち
ガール
幾何学
評議員
起こさ
##ショック
1856
ゲルマン
バンコク
ロシア軍
参謀本部
安全保障
東京都立
東北大学
##アクション
##フィクション
##ication
ヴァージョン
フリーアナウンサー
Association
冗
戊
##ニシ
##年金
##消防
##駅伝
##ael
BB
Je
たて
一塁
便利
充当
勅令
受領
常用
旭川
気分
法定
濃い
疎開
話さ
諮問
野口
頭取
Pet
コソボ
チーズ
告げる
遊撃手
##ガールズ
##ラグビー
##野球大会
)」、「
...。
ISBN
ちょっと
ドラッグ
小惑星帯
クラッシュ
東ローマ帝国
〇
伺
恨
筐
##きん
##ッロ
##テュ
##ビナ
##ョー
##作り
##文明
##活性
##ven
なぞ
のぶ
別荘
制動
勝つ
反則
叙せ
囚人
売春
大別
宅地
対比
対談
山名
愛人
慣れ
支所
施策
泣き
海老
聖母
聴取
衣服
請願
通訳
逝去
除籍
響き
飛騨
##テニス
##ンスト
113
210
80%
カンヌ
ディオ
ハプス
ムーア
作曲者
公明党
創設者
展覧会
普通科
満州国
生存者
知らさ
研究員
ピストン
下院議員
初回生産
日本経済
漫画作品
パイオニア
オリンピックの
シューティング
インターネット上
暁
砕
##ゼー
##ダラ
##国防
##資本
##ull
まっ
アロ
サマ
仮に
伯父
体積
儲け
充電
冷凍
処罰
出動
初心
商売
喫煙
市制
格好
洛陽
特例
用法
町長
発酵
絶賛
船橋
語彙
##ボルト
##ポスト
##天文台
111
取り囲
地域圏
満たさ
穏やか
英語版
調べる
貧しい
##ウィック
##ローラー
Disc
昭和天皇
民族主義
ニックネーム
ヴェストファーレン
漸
##どん
##よそ
##コシ
##ハマ
##担当
##拠点
##猶予
##観測
##amb
kW
一揆
不具
主戦
出仕
分校
勝率
台本
商号
大川
奨学
定番
客観
広瀬
延暦
志摩
戸田
推力
揺れ
斉藤
新潮
朗読
死傷
火力
番地
発刊
直し
補完
載っ
防護
##パイア
##メリー
##甲子園
##競技場
##iver
Mer
つくば
アンモ
エアロ
二塁手
向こう
地理的
故障者
血液型
途絶え
##フォンソ
##フライ級
Xbox
またがる
トランプ
生み出さ
親善試合
##ベーション
地方自治体
##に関する法律
アメリカ映画
読売ジャイアンツ
洲
澄
##マツ
LS
ヘリ
ミカ
一括
会う
分化
北魏
名簿
土屋
寸法
尋ね
届い
島田
志望
愛情
日比
森田
次長
民謡
気体
海防
点数
無期
発案
神父
脆弱
解剖
追及
閉館
集計
##の歴史
##モンズ
##ロシア
##視聴率
ケリー
ダラス
城下町
無失点
物理的
関ヶ原
##ブリテン
Port
アンジェ
グスタフ
デイリー
乗り出し
人口密度
クリスタル
ジャマイカ
プロトコル
ハプスブルク
アーキテクチャ
キャッチフレーズ
オープニングテーマ
##-2
##yc
芥
陪
##ほん
##セー
##ニヤ
##交代
##分割
##清水
##結成
##ren
かす
サク
円筒
判例
大小
天台
対面
平田
棄権
波長
清掃
相応
着目
祭神
突起
築造
職場
被っ
転校
##アーム
##ザック
##ツィオ
##プロス
##マリー
天文学
##メンタル
##レックス
##ヴァンス
フレーズ
ヘルマン
ユダヤ教
副大統領
無くなっ
##バルディア
マーケット
ラスベガス
二酸化炭素
nowiki
ウラジーミル
##ze
憤
麗
##チド
##戻し
##捜査
##提携
##臓器
##財産
##道具
##ris
as
アパ
エマ
ナム
伝送
円盤
同種
四川
多重
大本
妖精
岩石
庄内
民兵
海運
源頼
稼動
立命
総統
見れ
詩集
貯水
返済
鶴見
##ウアー
##ッシブ
##正教会
##ated
##ille
ふたり
トロン
ネズミ
フォト
ペナル
勝ち点
境界線
当ては
最年少
武田氏
補助金
障害者
##ブラック
##ンタリオ
##ology
1846
さかのぼ
アニメ化
スライド
ラジオ局
ラッセル
分離集落
医療機関
宇宙飛行
Colle
陸上自衛隊
フラツィオーネ
クレジットカード
##LA
##ng
仔
廣
酔
##フス
##メト
##弟子
##発表
##講師
##ECT
##RPG
Fe
Jr
To
vs
アオ
ソン
ブダ
共鳴
助成
匹敵
南口
回送
大差
奄美
家電
布教
張っ
強烈
律令
必然
忍者
提起
清朝
溶液
藤本
西宮
隠さ
順に
飲む
##アーノ
##ビート
##ンガン
##会議所
##市街地
##連合会
こなす
この街
めぐり
ダイナ
フアン
分かり
動物園
受賞者
安土桃
演奏会
留まる
見通し
ともない
アコース
エフエム
ヨーゼフ
持ち込ま
間に合わ
関連会社
駆けつけ
##ドライバー
Night
オンタリオ
サンパウロ
中央アジア
日本標準時
バンクーバー
ウズベキスタン
オールスターゲーム
縛
鞭
##のみ
##ベリ
##地裁
##島駅
##師団
##新潟
##本木
##由紀
##諜報
##oss
."
HO
いと
ざき
ふみ
カワ
ナー
ピュ
一派
入党
尚書
手間
日米
村山
欠陥
水害
若く
見た
規約
観念
転移
追っ
##いった
##バータ
##ペース
##年戦争
112
NBC
con
あり方
さらさ
カレー
ハッチ
パンタ
モール
リーガ
亡くし
執り行
州議会
日本橋
海岸線
無人駅
編集部
1300
Geor
Mich
カテゴリ
サーバー
ラバウル
殺人事件
経済産業
ハノーファー
古代ギリシア
安土桃山時代
串
樽
##傾向
##和歌
##弥陀
##rag
うん
ねじ
イソ
テュ
フッ
二階
休戦
割譲
啓蒙
字幕
強硬
担保
法務
稲葉
筐体
船員
進ま
飛躍
##チレン
##ホーク
##ラマー
##解放軍
##hone
##ript
114
カジノ
レーン
中性子
反乱軍
旅客機
管弦楽
追って
##営地下鉄
##教育大学
from
アンディ
ウイング
取り戻す
結びつい
##チネンタル
##ッティング
ウルグアイ
サテライト
シーズン中
カンファレンス
ニュルンベルク
阪神タイガース
董
##ムズ
##京都
##人間
##前線
##株主
##隕石
##ubl
がく
たつ
たろ
みせ
パウ
ビュ
全英
妨げ
官吏
年月
成虫
抑圧
搬送
旧暦
楽団
深海
自害
踊る
辞書
進級
都督
驚く
##インタ
##エント
##ストル
##レディ
Aut
この世
プラザ
利用客
総務省
##ブルック
##リネット
1845
Cent
おおよそ
もっぱら
ムービー
社団法人
ハリケーン
ヘルメット
古代ローマ
ガイドライン
ペンシルベニア
アフリカ系アメリカ人
##aj
}
堰
紳
鎧
##えき
##がけ
##ぜん
##もっ
##ナタ
##事堂
##屋町
##浴場
##着陸
##谷市
LT
me
しり
一流
中毒
別途
合弁
戸籍
挙兵
文禄
早川
晴れ
編制
舞鶴
転属
金色
養殖
##スコン
##ソナル
##リエン
##司令部
##教大学
『""
一般に
富士見
従兄弟
毛利氏
短距離
私たち
負傷者
重ねる
##ラミッド
##行政法人
EURO
アリゾナ
バス路線
ミハイル
ラトビア
そういった
パトリック
フェザー級
関東大震災
ヒップホップ
ポートランド
##レーティングシステム
寵
己
##なみ
##井市
##女性
##恐慌
##木町
##芸能
-」
NA
ぐち
ツー
ハナ
ヨル
両面
二条
作物
初版
別冊
北大
合金
喫茶
容姿
屋上
怒っ
拡充
東経
歌人
武術
燃費
紀州
覆う
負い
醤油
開口
##シャツ
##ヌエル
135
キネマ
スノー
ボイス
悲しみ
気づい
見た目
連なる
1851
Rock
イエロー
インド洋
カリブ海
ヨハネス
レバノン
##チャレンジ
Apple
ナレーター
Robert
ナイジェリア
ベストアルバム
アコースティック
エンタープライズ
##HO
宙
瓶
糾
薫
諫
頸
鼓
##こん
##ワル
##河内
##河川
##解析
##言葉
##調べ
##ano
##ike
##oto
RT
あふ
あま
マフ
世田
争わ
公社
同値
宮古
戦績
揃え
握り
棋士
洗練
議決
遥か
開花
集配
飛ん
驚い
##コロン
##シンキ
##ドレス
##フェア
##ルドー
##ータス
##女学校
007
133
Sal
それに
アンチ
コイル
フェリ
公民館
公用語
内野手
方向性
著名人
鉄道駅
##フスキー
##リーマン
いきなり
ドミニカ
モーリス
事務局長
所要時間
飛び出し
サッカー部
iPhone
インターハイ
フィクション
プロボクサー
朝鮮民主主義
朝鮮民主主義人民共和国
嬉
##っ子
##王者
##環状
##VER
##ura
##urn
おの
くろ
の子
仮称
保留
判別
割れ
原画
可変
地蔵
富裕
岩崎
惹か
斬り
新井
極限
浪人
炎上
白河
請け
買う
軽く
通達
##イオス
##ドコモ
##八幡宮
.")
230
RNA
Win
シーク
センチ
マディ
大将軍
幹事長
機関砲
競技会
親しく
##シュヴァ
##スコット
##スティン
##ロボット
##ヴィッツ
##独立戦争
##芸術大学
Mark
Thom
ウォルト
ガーデン
クリーク
バロック
社会福祉
連合艦隊
##ストロング
キン肉マン
スクウェア
ベーシスト
ローリング
圭
##バダ
##国会
##対称
##小屋
##殺し
##津駅
##系統
##金庫
Er
つぶ
ひこ
ドリ
上っ
乗じ
交配
信念
信託
収監
受講
品川
密着
市区
強固
御所
手数
架橋
梅田
溶接
炎症
私鉄
突出
肝臓
蛍光
##アット
##ギニア
##仁親王
やり方
エール
ボビー
マキノ
不具合
悪影響
社会学
薩摩藩
過ぎる
そういう
カプセル
大都市圏
##コフスキー
##ファイター
スローガン
ミシガン州
##ya
@
卑
##スン
##右打
##弁護
##武帝
##ARD
ラク
一層
三段
倉敷
八代
可動
大物
工科
慣例
打倒
批准
東郷
海面
減速
点検
輝く
迫害
通話
野戦
長門
高騰
##クリー
##ノイド
##バルト
##戦闘機
##管理者
Alb
Don
USA
UTC
ガリア
マカオ
一塁手
久留米
信号機
全面的
対照的
果たせ
浮世絵
立命館
終わら
試みる
音楽祭
アイオワ
イスタン
サンダー
リットル
師範学校
Group
フランチャ
自転車競技
##ファンタジー
ディビジョン
##RA
伽
塞
糞
蒙
##いい
##守府
##検定
##沢東
##田線
##金融
##ors
DT
SK
Vo
かき
ココ
ママ
ミー
万人
佐渡
内地
同法
名跡
器官
回帰
外野
容認
川端
幕内
戦功
望み
次郎
浜田
番目
発光
立花
若き
覚悟
退場
適正
風呂
##クロー
##ミラー
##ンシー
##ーマル
##REAM
Ind
rpm
みなす
ナイフ
ローラ
一般人
著しい
見出さ
防衛戦
##シャトル
ますます
キャップ
サンデー
スロット
ボヘミア
読売新聞
資本主義
##レーシング
スティーヴン
スーパーボウル
暑
胆
##の国
##シド
##千葉
##学習
##殺人
##王星
##部長
##釧路
##200
MD
ro
づけ
下総
係る
傾倒
再戦
反抗
反響
同書
委任
宗派
広範
微妙
恒例
没落
派手
灯台
牛乳
異性
発端
荒木
誤差
近所
選任
開港
預金
##サリー
##ッツォ
##テクノ
##ナーゼ
##レベル
Ang
Val
オリン
クロム
スラヴ
マクシ
上手く
下がっ
再結成
##サウンド
ください
ギャング
フライト
ブッシュ
任務部隊
取り扱っ
軽巡洋艦
##スペシャル
アクセント
スペイン人
パーソナル
モーニング
東京都港区
関西テレビ
新日本プロレス
アメリカンフットボール
##IB
訂
##すぐ
##つう
##よく
##タリ
##ペス
##ラヴ
##棋士
##erg
qu
あつ
さく
はや
タム
ホウ
上半
上越
停滞
動揺
吸い
因む
基底
声楽
気圧
発砲
着け
粘土
要職
諜報
赤穂
開閉
鳩山
##レーツ
##歌合戦
##unes
70%
Des
ノイズ
三塁手
彼自身
沿岸部
特別賞
落ちる
##ナンバー
##ンジェル
ルクセン
中国大陸
交響楽団
少年時代
連合国軍
最優秀選手
##イングランド
ウェルター級
バッファロー
ヨーロッパ人
壱
弔
杭
##オロ
##ジロ
##予報
##交渉
##付く
##東洋
##生徒
##ety
##yth
すみ
ばね
らい
レア
丸山
二本
児玉
公示
加増
原発
夜行
大村
学級
屋内
府立
未知
東岸
水質
永正
畠山
番付
祭祀
絞り
給付
言論
足立
遊牧
音色
風習
##ヴォル
##oint
San
たけし
ちなむ
アレル
排気量
##ウィーク
##コーダー
##フレット
##ブリエル
1852
1857
ファンタ
ライアン
ロベルト
交通事故
州立大学
レイアウト
東京ドーム
電気機関車
トランペット
##ナイトニッポン
グランドスラム
日本テレビ系列
凡
唇
喉
堪
湊
笛
苻
##かれ
##みつ
##ガリ
##トコ
##前国
##尾市
MG
MM
OH
UP
イザ
エグ
ナル
ヒン
不幸
反動
可愛
奉仕
委ね
弱体
毛皮
激戦
生理
病原
白鳥
軍務
青銅
##ッツァ
##ヒドロ
##IGHT
##ican
どころ
カンタ
バリー
ワット
戦力外
所有権
推し進
楕円形
礼拝堂
近づく
速やか
##千代田区
ゲーム機
フォント
ライト級
取り壊さ
学校教育
物理学者
##メーション
キャサリン
ドイツ帝国
フォーラム
非常勤講師
アドバイザー
地方公共団体
音楽プロデューサー
侮
棺
雛
##そく
##カミ
##マニ
##事変
##報告
##江省
##決議
##要素
##退学
##ior
:、
GU
fe
wh
つと
なの
テー
ヌー
メリ
一転
人名
千秋
去り
右派
同義
喜ん
団長
圧迫
幽霊
役場
待た
時々
本番
次官
灌漑
焼け
発効
美し
蒸留
虚偽
込み
遭っ
郵政
音節
##カウン
##クライ
##ダイス
##バトル
##ビウス
##プティ
##マート
##ロニア
GDP
ドック
マルコ
太陽光
最終日
止まり
海兵隊
車椅子
##ティーノ
##ファイト
##aster
Tour
いろいろ
マフィア
亡くなり
化学反応
幹線道路
Inter
フランス領
ブランド名
強制収容所
教育委員会
書き下ろし
カザフスタン
テクノロジー
イスタンブール
ミュージックビデオ
オックスフォード大学
##ha
堕
壺
宜
祥
窪
##の上
##やさ
##タナ
##人員
##分離
##南道
##振り
##本市
##都心
もも
イカ
デハ
ラヴ
乃木
余剰
共著
切手
到来
千歳
反復
奔走
始祖
完璧
対局
小樽
届く
帰化
景気
松前
決済
流動
消火
照準
縁起
色々
菅原
行え
行先
西川
警報
連行
鑑定
##コーラ
##プラザ
##ヴァイ
##重なる
##raph
260
ATP
つなぐ
サスペ
シンセ
中継局
審議会
見かけ
評議会
##モバイル
2500
Cont
Soft
クリーム
サイモン
シールド
ディープ
呼び出し
早くから
鉄道車両
##サーキット
##モンスター
ウィルソン
フリゲート
マニュアル
子どもたち
フェルナンド
リヴァプール
ワシントン州
ルクセンブルク
東京都千代田区
ノースカロライナ州
桶
##ペー
##争い
はち
れい
ウン
三振
不況
使命
単身
国交
大田
学派
帰属
望月
東名
物件
物価
玉川
翌週
藩政
覆い
見習
視界
諸葛
豊島
軍令
退学
通告
長江
##ゴルフ
##ダック
##リスク
##沖地震
##生物学
##騎士団
144
カーン
ハリス
マルク
主たる
師団長
日本武
##アイレス
##工科大学
##irect
Best
Life
アミノ酸
ジュリア
ファーム
プロフェ
勝ち越し
外務大臣
大阪市立
少なから
連邦議会
サイレント
ドレスデン
オフィシャル
ストックホルム
##90
##ll
嶺
稿
閑
##おか
##ムル
##人数
##州市
##軍事
EL
きみ
イグ
ジル
三郎
催し
劉備
台数
地層
嫡子
州立
広め
歌曲
消耗
炭酸
真理
計上
軌間
頭角
馬主
##男優賞
##ahoo
たった
ケニア
スープ
パズル
ムーン
個人的
劇作家
市役所
新潟市
毛沢東
西海岸
逃れる
##ディウス
##ファーム
1700
King
ケプラー
タイ王国
チャール
ユニーク
右投右打
司令長官
##テンシャル
##バルセロナ
Charl
アッシリア
グラミー賞
ディフェンス
ハイビジョン
後楽園ホール
ケンブリッジ大学
コンサルティング
オペレーティングシステム
嘱
溺
##しめ
##ぞう
##アベ
##レチ
##宗教
##材料
##ONE
?)
Im
JS
di
そろ
ふれ
まえ
フン
何者
俳句
冷蔵
勝て
告示
営ん
完走
弱点
日経
最期
最短
注い
流す
異端
精霊
終着
重用
頓挫
##しもと
##づける
##フロー
##弁護士
##ates
BAS
じゅん
アイン
インク
トゥー
プロパ
ランカ
下げる
何とか
初舞台
後押し
核兵器
短時間
複数回
見込ま
##ルツェゴ
##ージャン
おこなう
ハワード
フェミニ
ブエノス
管弦楽団
##コンクール
ふさわしい
イタリア人
ミステリー
全日本選手権
アトラクション
モータースポーツ
##エンターテインメント
##na
柿
罠
蜀
鄧
馮
鵜
##の内
##ガタ
##ボイ
##多様
##射砲
##尿病
##度線
##空母
##計算
##青年
##ush
AF
はく
やく
オイ
ヒュ
上る
余地
供与
共生
助演
古事
号車
夏の
崇拝
弁当
弾道
意気
改易
機密
消息
無断
版画
白川
自生
芥川
規範
言動
転々
邦題
金田
銃身
開園
風刺
##エンザ
##カープ
##ナック
##ビッチ
##ローナ
REC
」(「
アスト
メチル
一方的
初心者
高まる
##スタッフ
##ファルツ
##ポリタン
##press
1100
カーネル
シンシナ
タンカー
出場停止
初ゴール
対戦相手
James
エルンスト
カメラマン
故障者リスト
△
瀕
翁
蔡
隼
##てい
##びん
##ズス
##主席
##井町
##使用
##分解
##半球
##直さ
##直す
##連れ
)『
OR
かし
ほっ
カモ
キラ
ジオ
中流
二分
以西
入線
全編
北岸
同族
同県
失踪
屋台
日韓
眼鏡
砲台
税金
端子
製法
赤松
遭難
銘打
雇わ
電池
##キスト
##グレイ
##ステリ
##リスタ
##総督府
##ouse
Reg
カルロ
シュル
ピュー
呼び名
武田信
滅ぼし
滑らか
##リアーズ
##国立公園
##白歌合戦
Paul
Spec
イヴァン
コロニー
ダイナミ
ルドルフ
令和元年
打ち切ら
推理小説
##ファイナル
ジェームス
天然記念物
パンタグラフ
プエルトリコ
##プレミアリーグ
決勝トーナメント
##fl
##ye
悔
挫
窺
胤
騙
##アニ
##メド
##メー
##事情
##微鏡
##戸市
##社員
##銀河
GE
WC
カク
クワ
ハヤ
一条
一段
付録
動か
北野
取水
呼応
天候
工兵
廉価
水銀
渡さ
湿地
無数
美人
車輌
軍政
軍部
送電
鋭い
限っ
隙間
離散
顕彰
##ぐるみ
##イルズ
##ゴット
##メンテ
Fla
per
ダニー
パール
マザー
レシピ
代理人
司会者
商品名
捉える
監査役
良かっ
間違っ
##カウント
##ージナル
アイアン
ゲオルク
チェンジ
作り出し
国立大学
度重なる
日本航空
経済学者
##クラシック
##ッディーン
Award
イースタン
ジェイソン
ニュートン
メルボルン
置き換える
シンシナティ
独立行政法人
陸軍士官学校
カップリング曲
##SH
q
杖
煽
皿
菱
鴻
##じみ
##ラジ
##事態
##付か
##保健
##太后
##期的
##構成
##然と
##財団
##開き
##...
かさ
たど
付さ
入所
八木
共存
効力
喜劇
完備
常識
折れ
握る
来場
棄却
溶解
激突
照射
片岡
発作
硫酸
競う
街路
説教
辞典
返上
重心
降車
陰陽
隆盛
##ガルト
##シェン
##ソシエ
##ヒルズ
##ワート
##ital
API
Min
アルカ
ネーム
先立っ
夏休み
広げる
##ブッシュ
とどまり
カップル
京都府京
利用可能
特急列車
運営会社
セルビア人
ヤンキース
アメリカ空軍
クラブチーム
プロトタイプ
ポルトガル語
スタンフォード
ブランデンブルク
—
亮
匂
柵
泡
##えい
##りん
##アブ
##テラ
##一度
##再生
##分布
##安婦
##線橋
##OCA
##ery
##ple
ER
GA
TE
カシ
コメ
ロボ
伝来
出兵
加茂
包ま
受付
召し
奥羽
宿場
島内
幅員
打点
授賞
松岡
法制
物流
登用
監禁
臓器
足ら
##ウェン
##サウス
##リッチ
##機関銃
1.5
Mat
ドコモ
天皇賞
川崎市
従四位
日比谷
楽しん
止まっ
請け負
金属製
開幕前
##キンソン
##ズカップ
##医科大学
City
アテナイ
キプロス
ショーン
レパート
話し合い
アドバイス
サントリー
フォワード
フランチェ
##ファイターズ
リッチモンド
プラットホーム
##go
悠
牌
##アフ
##交差
##嵯峨
##張っ
##時点
##治郎
##西区
##遣い
##離れ
##iro
NT
お茶
はた
クマ
タマ
三塁
主席
処方
原油
奪回
建武
打席
抗体
新車
日数
有り
河合
火器
真似
移築
誌上
都内
開会
離反
預言
黒海
##キッド
##ッショ
##テージ
##パード
##ラック
##リオス
##外国語
##inal
SNS
VHS
いすゞ
シール
ジャワ
ピック
マリン
動かし
庶民院
無差別
目覚め
##サンデー
##ルドルフ
##cript
1847
フェロー
ボリビア
ミドル級
ワクチン
建て替え
ファミコン
南アメリカ
##アイルランド
##ピクチャーズ
女子シングル
##LC
##gh
姪
梨
浙
硝
韻
##づか
##やり
##フカ
##メロ
##動脈
##変換
##工廠
##役員
##記事
##資金
しら
イブ
イマ
スプ
マヤ
偽装
前橋
厚い
厚く
取締
後見
愛宕
挑ん
着く
祖国
究極
肺炎
虐待
要衝
閉塞
麻生
##エース
##セブン
##ラシア
##都市圏
WWF
ハット
バッハ
出張所
奨学金
或いは
新人賞
未だに
発電機
1843
1844
かたわら
フェイス
総司令官
軍司令官
##キャスター
##グラウンド
##ロンティア
コンポーネ
テネシー州
ヘルシンキ
リポーター
自動券売機
##ニングラード
レパートリー
##コミュニケーションズ
圓
煉
稜
罷
脈
##しか
##みん
##ろす
##ウオ
##党派
##将棋
##小牧
##曽根
##氾濫
##製薬
##ANG
##RNA
##ima
LE
TM
ダウ
両立
人的
供養
公言
別当
双葉
大火
学業
島々
川内
工法
平衡
早世
海抜
産経
真剣
祭壇
稼ぎ
粛清
補う
讃岐
速力
隠す
##スカー
##ダブル
##ブレム
##ープロ
)」(
FBI
NAD
かわい
スピー
事業部
多様性
暴力団
落語家
行き来
製作所
親しみ
跨線橋
軽量化
##ゴーニュ
##ファンド
##フォート
1400
Club
たまたま
ソロ活動
映像作品
社会問題
観客動員
鉄道会社
##エンジニア
##ージナルス
ウィンドウ
カルシウム
ジャーナル
コンピレーション
ロンドンオリンピック
##BL
濁
##トム
##代理
##像度
##商品
##基督
##鉱山
##ole
WA
スネ
バタ
マナ
下降
並み
伝播
原告
合作
同定
四球
回し
城内
売っ
孤児
導か
悪役
本能
東亜
武道
沈ん
渡す
絡み
胸部
茶色
裁定
門司
阿蘇
隔離
養育
##じゅう
##ウルフ
##ンバラ
##ヴェー
##ason
320
MAX
you
タイル
バーミ
久保田
内陸部
支払っ
現時点
航空隊
護衛艦
返り咲
##クトップ
##ハンター
##ベトナム
オーダー
クランク
ゴースト
ジャガー
スキー場
トリプル
中学時代
振り返っ
##ッカーサー
##プログラム
サスペンス
連続ドラマ
##ディレクター
##野球選手権大会
Project
ブエノスアイレス
エンターテイメント
ファッションモデル
エンターテインメント
##70
##DI
##xt
候
挺
揶
櫻
疫
##ヒド
##フジ
##園地
##広島
##族館
##書籍
##皇后
##花賞
DX
IG
くち
こま
ゆめ
ウマ
ヘア
一生
久米
九条
傭兵
優等
光景
別府
即ち
吐き
噴出
圧勝
希少
平城
揶揄
書道
桑田
民家
浮き
社交
良さ
農耕
部署
里見
鉱業
開山
閣議
頻発
##しゅう
##ピース
##女優賞
##azon
211
CIA
アクア
ジーン
ドバイ
バナナ
メイド
三国志
利根川
在来線
恐らく
東海岸
民主化
江戸城
##ファイア
##ラーレン
Soci
ふるさと
アラバマ
カヴァー
シュトゥ
ソニック
チンギス
トータル
ユダヤ系
追い詰め
##民主共和国
コミックス
ジャッキー
##ルツェゴビナ
ニュータウン
鉄筋コンクリート
櫛
##、『
##エビ
##中区
##復活
##新田
##淡路
##erv
##hem
nm
一応
光線
全額
勝敗
区内
同窓
地頭
均一
壁面
学制
実弟
従前
感銘
採り
敗走
春秋
理性
直下
短歌
砲身
祭礼
耐性
興奮
著述
連帯
配し
配偶
銘柄
開墾
##シアン
##チョフ
##ラング
280
サヴォ
ヴィン
下がる
修士号
地質学
感染症
日本車
画期的
育てる
Serv
ゴードン
ソフィア
チェンバ
チーム名
ニッケル
室町幕府
持ち込み
旅客鉄道
日常生活
最寄り駅
管轄区域
落ち着い
音楽監督
##ッショナル
##ポジション
##ヴィジョン
Techn
ジャングル
引き起こさ
##原子力発電所
イスラム教徒
ドラゴンボール
##コーポレーション
##ij
屏
憑
濱
鉢
##ざん
##タカ
##亡人
##冒険
##及び
##四国
##大夫
##姉妹
##当局
##渡す
##祖父
##解決
##語族
ゲッ
ナノ
ヨシ
三十
保た
借用
全勝
共作
天守
宇野
実効
小池
従わ
思え
文藝
本丸
杉山
検閲
物品
男児
石碑
車軸
辞し
農園
送付
##いてい
##ちゅう
##ダイヤ
##ッガー
##メンス
##ルドバ
##兵学校
##沖海戦
##自治区
##起こし
270
つくっ
ギャン
ジョナ
ベビー
ペトロ
リンパ
出かけ
勘違い
古事記
問題点
抜ける
移籍金
阿弥陀
##アドレス
##エジプト
##リサーチ
##石器時代
1832
1849
アーカン
クラウン
中小企業
制作会社
女性声優
損害賠償
短期大学
##フォーマー
##フルエンザ
RECOR
align
フライング
ミズーリ州
北海道大学
アニメーター
クラリネット
峡
幌
斗
牢
蛋
##ぱい
##大輔
##広告
##江市
##瑠璃
##競争
##ALL
##ASH
HS
ME
一式
乗船
了承
内定
動脈
北村
子育
宇部
小名
布告
放火
水溶
永田
氾濫
特産
王権
異議
結末
聴衆
豊橋
越し
金星
門人
頼り
養父
##イッチ
##ケース
##ルトゥ
##ントラ
##競輪場
ISU
MON
かわり
スクラ
ノック
マニア
ミクロ
不適切
先立ち
化粧品
大好き
手伝い
生息地
知識人
立ち向
答える
遊歩道
##クリーム
##ジェスト
##デンティ
##バックス
##ブラハム
1806
1836
クルーズ
クロード
パケット
Power
アルベルト
ジャニーズ
テクニック
フォックス
ブダペスト
取り上げる
##ウィリアムズ
シャーロット
チョコレート
公益財団法人
##プロモーション
American
##IF
•
畿
裾
譚
##おん
##こし
##らぎ
##サキ
##ブト
##ベー
##メガ
##モフ
##ヤマ
##停車
##家庭
##寄っ
##形式
##潜水
##net
iT
スム
ニン
一線
中道
京急
停泊
内包
割っ
劣化
十三
問屋
図形
失速
察知
平壌
店頭
慈善
手動
改番
敬意
松永
歯科
治め
生後
素子
給油
返す
邪魔
難航
驚き
麻痺
##コーズ
##ングラ
##ータン
##広島市
850
およぶ
なんて
サザン
ボーイ
ラオス
低価格
反する
未亡人
気付い
活動家
野球場
飛行隊
##ッカーズ
1842
アルプス
エステル
ダブリン
吉本興業
引き継ぐ
彼女たち
自然科学
##イーグルス
##ゼーション
##ディション
##ラブレッド
Count
Yahoo
コンコース
スピーカー
ピラミッド
ペナルティ
高等女学校
エディンバラ
男子シングル
##ヘルツェゴビナ
Michael
カンザスシティ
フランチャイズ
ニューイングランド
##sc
$
凹
孵
崎
扁
碧
逢
##り物
##バチ
##メア
##刑事
##改札
##景気
##陛下
##駆動
##ugh
NM
SW
おば
くみ
わら
オロ
セネ
上告
人道
具合
内訳
参議
同調
吸血
増す
大抵
実子
尼子
州間
平ら
引か
彼等
有る
栄光
業態
減り
聖地
草原
補欠
解く
解読
語学
##タニア
##フュー
##リアー
##ンクス
##受ける
330
Act
Fac
JFL
Tok
del
der
ing
わたる
アクセ
オムニ
シャイ
ラック
リール
党大会
容疑者
最後の
理学部
相対的
研究家
美しく
苦しん
関連性
##フレーム
##体育大会
ならびに
やり取り
アルカリ
エアバス
オスカー
スカパー
一本勝ち
三菱電機
人工衛星
古墳時代
教育学部
直通運転
##ゴールデン
##ナトリウム
##プレミアム
ビジュアル
兵庫県神戸
繰り広げる
サブタイトル
州間高速道路
関ヶ原の戦い
捨
祠
鍾
##やめ
##グモ
##分子
##夫人
##川線
##意味
##模型
##短調
。(
ふり
上総
主君
主軸
停戦
出番
勧誘
半減
因果
大沢
帰宅
戦災
指向
欠い
滑り
火事
特務
石見
臨む
蒲生
都会
隕石
飼い
馴染
##エンヌ
##ドゥル
##ノート
##ベンツ
##ーツク
##新人賞
##明天皇
Red
Rev
Sec
ウェル
ウルフ
カント
ベリー
広東省
当てる
文化人
未成年
消費税
聞かさ
苦しむ
##コメディ
##サンブル
##ドックス
もう一度
カセット
カタール
シュヴァ
チャージ
ハイデル
自由契約
##キャニオン
ロースター
##ペンハーゲン
テーマソング
ウィキペディア
コンポーネント
アトランティック
##be
汪
瞳
碁
##あり
##ブズ
##味線
##命令
##埠頭
##山線
##石油
EF
Tw
Ul
Up
im
――
かま
はし
ダメ
一社
健全
偶数
共感
出血
可視
土岐
大夫
大木
大英
救命
松原
河原
産む
画策
細分
給水
解禁
通例
養老
高台
##サイユ
##ジェン
##スラー
##望遠鏡
##馬身差
ATM
CBC
コスタ
ゾイド
チェス
デッド
ドナウ
ベルン
先頭車
子育て
押さえ
文化庁
電動機
非営利
##ウェスト
1814
アトリエ
ミネソタ
旅客列車
日本鉄道
結びつき
縄文時代
##ンジャミン
##ンジャーズ
##証券取引所
アンソニー
バークレー
日立製作所
サラリーマン
ソースコード
パンフレット
プロフィール
##CF
##NE
##va
##za
只
壬
巫
罵
##びき
##ニェ
##ビオ
##マグ
##リト
##ーザ
##不二
##位体
##回参
##拡大
##浜町
##資産
##通貨
##領事
##-15
##unt
">
JF
SG
うら
ささ
エカ
タグ
下表
中略
元号
円錐
卓球
喜多
嫌っ
孤独
宇佐
座っ
御家
微小
戦中
描画
本校
洗浄
演歌
焼い
熱狂
直撃
相馬
着想
経典
罷免
老中
課さ
貞観
赤城
超高
身近
車掌
退去
随時
青葉
駐車
##クトン
##チェル
##ドリー
##ノルド
##ルート
##ロッテ
##ローグ
##ival
Mor
Nor
」(『
いわば
のぼる
ヘヴィ
マッキ
出して
命じる
富士通
教育者
日本版
漫画版
##キャンプ
##スクエア
##ストリー
##ターニュ
("")
Girl
Jose
クローン
ディスカ
デビッド
ロマンス
工業大学
王位継承
##ウェールズ
Enter
オランダ人
プリンセス
芸能事務所
##回参議院議員
ハンドボール
エレクトリック
##回参議院議員通常選挙
##AE
淵
賦
##がす
##せつ
##ばり
##よい
##イエ
##カゲ
##ヶ岳
##一貫
##快速
##機卿
##自動
##rop
JT
MX
ne
あわ
か月
れれ
サタ
タケ
マダ
側室
入港
出せ
匿名
各局
四季
太夫
実父
少量
川島
延宝
残党
注射
目録
若狭
西田
試行
身柄
通説
飛来
##ディナ
##デッド
##ヒュー
##本願寺
##ield
みたい
アレン
アース
サンス
テュー
レシー
前年度
取り巻
対象外
後醍醐
放送枠
替わり
構える
歌劇場
開拓者
##クラテス
##ittle
9000
UNIX
イベリア
使用可能
短編小説
電気通信
##チャイルド
##ations
アカウント
##ヘビー級王座
ブルゴーニュ
##86
##PA
牡
荊
##ぐん
##テー
##ムナ
##中市
##中毒
##公司
##役者
##批評
##渤海
##祇園
##連絡
##ATE
TH
あう
さだ
しゅ
カサ
ゲン
シリ
ノウ
ロブ
両手
中身
公害
前輪
加害
占有
収縮
堀江
外科
天野
失望
学説
家で
建つ
強姦
日間
明言
本流
果物
正則
決闘
満洲
点灯
無駄
王宮
発進
目前
直属
祈祷
簡略
細く
絶縁
続出
腎臓
若松
荒れ
討論
許す
##ゴロド
##ッチェ
##ニャン
##ピタル
##メモリ
##評議会
##vent
!』(
")、
うがっ
そちら
とはい
ほんの
アリー
オウム
ケルト
ソナタ
ノルト
ホルン
ヨハネ
中心街
十字架
掛かる
文字列
江戸川
真言宗
秋葉原
聞こえ
言語学
連合会
##シェヴィ
##フォルト
##リーダー
1834
スカート
ダッシュ
乗り越え
大阪大学
東京都内
東海大学
申し立て
閉じ込め
鹿児島市
##アントニオ
##スコンシン
Champ
David
取り付ける
社会人野球
アイスホッケー
北京オリンピック
##yr
肘
苛
険
##めい
##コイ
##不動
##基本
##欧州
##面目
##ero
きら
エム
カツ
ビス
メド
乱れ
人力
仁川
仮設
何故
倣っ
出征
剣術
勇者
吉村
商会
困窮
多々
大平
恩恵
患っ
悩み
推挙
椎名
消極
渡河
渡航
甲州
町田
破片
納税
織物
義理
自覚
郷里
陶器
隆起
電鉄
##トゥー
##ャルト
##ユーズ
##レンツ
##労働党
イデオ
ケント
チョウ
ヌード
今川氏
保護者
州知事
浴びる
##クラフト
##サイザー
##経済学部
とはいえ
インフレ
クリーン
ジェーン
スケッチ
セミナー
テーマ曲
リベラル
リーマン
世界記録
殿堂入り
気に入っ
活動休止
##オグラード
10000
DREAM
ヘブライ語
バイエルン州
ボーカリスト
ウィスコンシン
ジャンクション
揖
擲
股
襄
##めん
##ボナ
##以上
##南町
##審査
##征伐
##模様
##用品
##英語
##被害
##IME
##erm
さわ
オト
ギュ
デカ
ネク
ルカ
乙女
公判
千里
南岸
図柄
増幅
壁画
大軍
天狗
安く
帯域
廃校
強要
戊辰
旧称
書院
東欧
樹脂
河岸
混血
畿内
確執
西尾
規律
訂正
超音
踏ん
遊ぶ
長き
風土
飲酒
##の法則
##キウス
##ネーヴ
##パワー
##山古墳
##歳以上
##管理局
Arm
ONE
USB
ゆえに
わたっ
ゾンビ
ティン
ヒール
ビザン
マキシ
ラベル
ロッキ
作詞家
史上最
国際法
売上高
女子高
学習院
手数料
検察官
浮かぶ
生中継
資本金
Good
いち早く
アマゾン
イエズス
ジョアン
ソマリア
プラズマ
ヨルダン
レーニン
宗教改革
引き渡さ
歩兵連隊
特殊部隊
北アフリカ
##ージェンシー
iTunes
フィニッシュ
モンゴル帝国
ライプツィヒ
公立高等学校
コンスタンティノ
映画プロデューサー
ドキュメンタリー映画
·
礎
胚
##にお
##ぶし
##カワ
##ッと
##ツネ
##八郎
##定数
##寺駅
##工芸
##広域
##復帰
##推進
##方法
##楽町
##第二
##通行
##app
##ico
UK
ひき
よら
カニ
ピョ
ミラ
不快
伐採
刷新
即興
口座
園内
坂口
安心
必死
拒ん
映し
時空
枢密
検知
榴弾
比叡
渤海
爆雷
産物
田原
県境
着い
祀っ
綱領
赤道
近傍
風味
##カート
##サード
##テルン
##ular
あだ名
ありが
ましょ
ウォン
エヴァ
キノコ
コリン
スタイ
デュオ
主導権
優秀賞
団体戦
宇宙人
延喜式
得票率
投げる
振るわ
新記録
法学者
精力的
警察庁
運転手
Blue
Rich
Time
シグナル
自動改札
芸能活動
##カトリック
##ージメント
テロリスト
ユーラシア
##エージェント
##サッカー連盟
##ヴィルヘルム
コネチカット州
シェイクスピア
ハイデルベルク
アクションゲーム
アーケードゲーム
アメリカ合衆国大統領
##HD
##WF
絆
##っか
##はし
##ムラ
##ロラ
##人形
##前駅
##原理
##梗塞
##百合
##ena
Kn
LC
おし
たっ
パパ
三遊
下層
修繕
増築
変速
外装
大垣
太刀
奇数
対等
岡村
幽閉
従え
拍子
捕鯨
揚げ
文人
村落
浅井
直系
総理
荷重
薬品
証人
##まつり
##セイユ
##バファ
##マネー
##ャーズ
##ワンダ
##化水素
##erry
##ions
13.
Sil
バター
リーチ
中心的
代議員
共通点
業務用
見なし
間違え
1813
1820
なんとか
クーパー
ライナー
作り出す
業務提携
オープン戦
乗り入れる
##トレーニング
ベンジャミン
兵庫県神戸市
##パーソナリティ
カンヌ国際映画祭
ナショナルチーム
##jp
逐
鯨
##なぎ
##ヒロ
##作物
##年半
##当地
##福岡
##選択
##IVE
##yle
(→
CN
VR
うじ
おま
エナ
タウ
ヨウ
三代
上段
下落
人造
倒壊
元亀
六角
出願
受理
同館
味噌
域内
売店
富ん
寒冷
小牧
当面
打球
掃除
明白
本町
構図
海中
混成
渡来
源泉
溶媒
溶岩
熟練
立派
築く
英名
買わ
透過
過度
遠江
陽性
頼ん
驚異
##シュト
##ポップ
##ラクル
##ージョ
##責任者
Lab
アルマ
ジオン
マーチ
リフト
ルーシ
大蔵省
形容詞
支配人
歴史学
糖尿病
重要視
面白い
##ディオン
##フリート
##学園大学
1789
Fire
Mart
name
いっぱい
こうとう
ジョゼフ
デュアル
ネルソン
ハイパー
仲間たち
住民投票
日本語訳
最大規模
##ティックス
トレーナー
プファルツ
マディソン
Amazon
アルフォンソ
スポーツカー
組み合わせる
キングレコード
コペンハーゲン
##99
梵
##すい
##ヶ崎
##称号
##aut
##las
CT
Wi
いこ
かわ
スモ
ハチ
ハブ
バド
レプ
一目
下る
二十
二子
亡き
公営
写し
勇敢
北斗
増援
変貌
大崎
大理
孵化
小西
市道
年寄
復員
心身
恨み
手配
支那
星人
時事
榎本
機甲
氏名
水力
汽船
油圧
理学
祝福
穏健
築地
綴っ
自力
自発
色素
華族
鍵盤
門前
高倉
##パンク
##ブリア
##ロギー
##ロース
##大公国
##音楽院
25%
OEM
UFO
クック
コモン
レイク
保育園
名高い
大まか
最小限
枢機卿
目的地
私生活
落とさ
製造業
##ウィング
##シャフト
##トレード
##ユニオン
1792
1801
1815
トリック
宿泊施設
推し進め
東京電力
譲り受け
完全子会社
##olution
ギリシア神話
スターリング
ニュース番組
ノルマンディー
##HA
##UF
叢
逓
##ぐち
##とみ
##の花
##バク
##依存
##去ら
##合唱
##日報
##殿堂
##西市
##近代
du
けれ
だら
クオ
ピカ
ポロ
三輪
下車
五郎
優遇
内政
国歌
宇文
応永
念願
指針
提訴
教材
整っ
文言
根岸
消す
生計
略し
笑顔
聴く
謀反
金山
##どころ
##りょう
##ネグロ
##パネル
##ビック
##指導者
##造船所
CON
ご当地
エッジ
エラー
デニス
ヒスパ
保守派
停留場
取って
打ち破
状況下
資料館
超高層
##ウィッチ
##クイーン
##シュトラ
##ホームズ
##リオット
##ience
1821
1841
こだわり
ローマ字
ヴォルフ
戊辰戦争
抜け出し
有罪判決
見つから
##デルラント
##ローマ皇帝
##紅白歌合戦
アイディア
サイエンス
ジュネーヴ
Direct
アーカンソー
フリーランス
プリンストン
マスメディア
colspan
中日ドラゴンズ
初回生産限定盤
コミュニティバス
マイナーチェンジ
トランスミッション
##cy
尹
抄
櫓
欽
膠
蔓
輌
##ウキ
##デモ
##ビジ
##ベロ
##皇子
##繊維
##血球
##ICE
NC
Of
さよ
なべ
なみ
イサ
カレ
ケア
争奪
俗に
値段
劣勢
協賛
合致
外務
大作
失格
奉公
実習
宿主
市政
弾丸
施す
服用
桐生
機長
水位
汲む
満点
稲垣
童謡
精製
耕作
西山
試料
誓い
躍進
逸脱
配達
金正
震源
魔王
##チール
##トール
##民営化
##選手団
##berg
##ense
)、(
ひかり
ひょう
マック
ヴァー
取り外
子供達
広まり
##イレブン
##ゲームズ
##ティアゴ
##フィギュ
1803
1831
1838
Sing
はじめる
オリーブ
ガールズ
フレンチ
リプレイ
体調不良
貨物輸送
##シェヴィキ
##ストリーム
##チュワート
バーチャル
宇宙飛行士
東京メトロ
Instit
マルクス主義
ジェファーソン
東京オリンピック
##DO
俵
窃
駄
##かわ
##ミド
##伊勢
##北道
##妄想
##山藩
##持つ
##歌謡
##火山
##破壊
##西線
##記号
##500
##AWA
JP
Jo
SB
ホリ
不変
低速
健在
入城
兵員
内紛
別個
呪い
奮闘
安い
宣戦
平凡
弘化
慰霊
払う
方位
本稿
条文
松島
武者
泊地
用品
知恵
結党
落城
重さ
##か月間
##停車場
##審議会
FIA
iOS
こども
さとう
エドゥ
ハロー
ワード
初主演
助監督
原子核
多数派
太政官
年代記
旧市街
##スマルク
http
このまま
まとまっ
アーカイ
クエスト
セメント
トゥール
トウモロ
ブレード
乗降人員
人種差別
制御装置
政治活動
送り出し
道路交通
##ウォーキー
ステータス
デスクトップ
バックアップ
リーディング
ミルウォーキー
自動車メーカー
アドベンチャーゲーム
##ym
宏
寂
謹
##いく
##じま
##シマ
##タム
##ヴン
##人者
##信用
##公方
##出る
##加工
##去り
##強く
##未来
##機能
##着く
##統合
##調達
##ama
pr
。)
〉)
べし
ネガ
バチ
ホス
伴わ
使徒
元祖
区立
多賀
大原
家業
尋問
惨敗
書状
材質
残せ
浄化
漁獲
甚大
白山
皆無
素数
蛋白
釧路
院内
雌雄
電機
香取
騒ぎ
鶴岡
##シュア
##デシュ
##分ける
##文学賞
##法学部
121
Hen
もらえ
イアン
ケビン
トゥル
プリメ
ベータ
世界で
唱える
将来的
新人王
滅ぼさ
琵琶湖
見送ら
講演会
##アルプス
##スタイン
##ブレヒト
##リゾート
キャロル
クレーン
ゲイリー
スーダン
フォーム
フリース
プライム
プログレ
ホームズ
マクロス
ルター派
取りやめ
史上最高
改修工事
生き残り
第一人者
##ヤンキース
Dream
シャッター
セクション
デラウェア
パブリック
ピョートル
レフェリー
中心市街地
サラブレッド
トウモロコシ
全米オープン
RECORDS
スーパーファミ
グラビアアイドル
##HF
##PO
##ny
##of
嗜
舵
諱
##ズラ
##ポス
##ワナ
##務官
##古典
##品質
##女王
##球団
##真理
##ROM
##TER
(#
Lu
MI
it
ハラ
不審
中津
乗務
事典
代金
入札
入省
参詣
古賀
君臨
回顧
国司
存命
定格
年上
捕え
末尾
本庄
村長
歩み
登り
目の
空白
艦上
親密
警部
贈っ
超過
退位
配線
電信
顔面
##カナル
##カルタ
##クティ
##シアム
##ポーツ
##由紀夫
##cess
122
Dan
Fri
May
だから
アリア
バーナ
下士官
作用素
写真集
朝鮮語
犯罪者
積み重
連隊長
開催地
面する
ハンマー
ブラウザ
ベネディ
メソッド
中等教育
九州大学
児童文学
海上保安
独立運動
福音主義
追いかけ
オレゴン州
トライアル
立命館大学
第二次大戦
イデオロギー
ドラフト会議
ブルターニュ
京都府京都市
エスカレーター
ディフェンダー
マスコットキャラクター
##LL
##RO
▲
淮
遵
##ドキ
##保存
##倒し
##方言
##方針
##演奏
##状況
##移動
##部数
##aka
##ney
##ora
Da
QB
VF
ed
pl
すり
なろ
オズ
事柄
保ち
信任
前頭
創出
四肢
国宝
就き
快適
所定
正徳
歯車
生駒
登る
筑後
紅葉
繋ぐ
義経
肉食
船首
落札
蒸発
藤子
課せ
貸出
貸切
賜っ
赴く
運休
選曲
面倒
頭蓋
風潮
黎明
##ふそう
##メロン
##レック
##ンダル
##変わり
##潜水艦
##研究員
##鎮守府
##aint
##irst
Cal
ゲオル
テイク
バッド
ボトル
ボリス
実用化
挙がっ
法務省
生態系
自然数
貨物船
農学部
##スケート
##チューム
##ッチェル
##ブルース
NEWS
クローズ
スルタン
フラット
ベンガル
ホイッグ
ポップス
使い分け
国民学校
国民政府
国際関係
民間企業
行政機関
調査結果
関東地区
##ッソリーニ
##ットガルト
##ブレーブス
##レチックス
Radio
お笑い芸人
キーワード
コロムビア
ジョナサン
ネイティブ
日産自動車
貴族院議員
アンダーソン
スティーブン
ルーズベルト
##ep
俯
寡
晶
螺
襟
齢
##んと
##エナ
##ツク
##ヒム
##リド
##区間
##決め
##特典
##通告
##降り
LD
PH
Pi
SQ
Wr
XP
すば
ふう
もろ
モビ
三方
但馬
団結
地価
射影
岩波
市営
帝政
強行
新党
有望
林業
武帝
添付
満了
漁港
潜伏
田畑
終身
美女
脊椎
被疑
開場
電報
頼み
##カルド
##タイヤ
##ブログ
##国民党
##警備隊
Tri
グルコ
ホーン
モータ
中継ぎ
修道士
共和政
挿入歌
苦しめ
裏付け
重なる
長州藩
##クティブ
##クリット
##レビュー
##ヴァンニ
1835
アンゴラ
ジャンヌ
スパイク
ニーダー
先発出場
広島東洋
旧約聖書
明治政府
書き込み
毎日新聞
社会科学
言い渡さ
Sport
クレーター
リサイクル
日本選手権
##バスティアン
##メンテーター
コスチューム
スキャンダル
フランチェスコ
メトロポリタン
広島東洋カープ
##PP
##gr
##ta
塵
汝
##キナ
##ズィ
##ミズ
##ミヤ
##侵攻
##合物
##土俵
##多数
##大神
##山口
##木市
##降下
##://
##ury
:「
Cr
NK
Tu
かず
ジロ
モリ
俳人
加古
単線
外出
封建
小中
形質
戦況
払っ
拡幅
散乱
晒さ
曳航
本山
桑名
沈め
清算
特命
狩野
番外
百科
県民
眺め
破れ
第四
紳士
翌朝
苗字
行軍
製薬
解か
譲ら
転出
辿り
鉱石
阿武
##アドル
##エスパ
##ニッツ
##ルール
##塚古墳
##文学部
##止める
##work
Gal
KBS
アルビ
ガダル
サイコ
ソルト
パルマ
ラング
ロスト
上り線
下回る
待合室
支持率
数える
日本学
本会議
源頼朝
短編集
管理者
遊園地
鉄道省
韓国人
黄色い
##ケーブル
##ンドリア
##支援学校
1839
LINE
ZERO
ゆうびん
アトラス
カスタム
コンスト
ソユーズ
ディスコ
空軍基地
臨時列車
##タッグ王座
##マーティン
##時間レース
イエズス会
ウォーカー
スライダー
テレビ映画
リヒャルト
三菱ふそう
##バファローズ
ガダルカナル
コメンテーター
全日本プロレス
ディーゼル機関車
##ga
##po
##to
殷
耶
##じゃ
##やき
##パリ
##ベト
##井沢
##喜多
##国王
##数字
##文社
##濃度
##白河
##瞑想
##験者
##UND
##asc
##lin
Si
ox
ひめ
イロ
セク
乗馬
交替
入閣
合宿
嘆願
増減
夢見
天理
完投
居る
山林
月面
欠か
欠く
欠如
正午
水系
浅間
漁師
症例
百姓
福建
筒井
表れ
要約
説く
走ら
遷移
銃器
食性
##り合い
##グロー
##フマン
##体育館
##国防軍
978
できれ
に関し
ゲノム
ナビゲ
ネック
フュー
リボン
三部作
使用者
副議長
労働党
反政府
地理学
攻撃力
最大限
海防艦
王太子
看護師
講道館
超能力
軍事力
重なり
##リングス
##erson
1810
1818
おおさか
アクセル
カクテル
セルゲイ
ニューカ
フォース
リチウム
ワイヤー
持株会社
生き延び
社会保障
若しくは
電子書籍
ウエスタン
シャーマン
メンフィス
クラシック音楽
クリエイティブ
メリーランド州
##++
─
后
徽
椿
爬
芯
馳
##の神
##べく
##ボラ
##天国
##工作
##日記
##植民
##武蔵
##ACE
##gan
##ham
##rol
!)
Bu
SV
ゆり
イデ
シラ
ユン
ロウ
仰角
修業
個展
全力
刺し
副官
卓越
城郭
天満
官房
尼崎
御前
戦法
持参
救っ
昨年
曾孫
東国
東晋
検挙
正平
比定
気球
温帯
産ん
破ら
窮地
米沢
緯度
被爆
見守
貸与
起草
蹴り
酷似
鉄鋼
間近
##々しい
##しくも
##キシン
##クルー
##スパー
##ッグス
##プラノ
##レーナ
##発電所
Cap
ISS
WEB
エルフ
モナコ
仙台藩
価値観
大成功
選手団
##イアント
##ドリゲス
##ebook
1837
なるべく
アリスト
アワード
イェール
セグンダ
ハッピー
マルティ
##カントリー
##ティション
##ングローブ
さいたま市
ナトリウム
ホームラン
日本社会党
ルイジアナ州
ラテンアメリカ
##GO
##WD
乞
喋
##ネク
##フン
##ミオ
##伝導
##業界
##行事
##IST
##gin
##ste
DB
~」
もて
キリ
一様
三冠
主教
主観
信州
公然
円滑
再起
分担
噴射
回廊
坂上
場外
尾道
嵯峨
年次
急逝
投降
揚陸
敷か
新鋭
有明
株価
江川
沈黙
注力
洋画
演芸
生む
生還
直ぐ
相関
結集
英訳
補修
足跡
配当
銅像
開削
離島
##りゅう
##ウィル
##バイン
##レッタ
##込める
145
FOR
tra
インフ
オルガ
クイン
シクロ
ニーズ
レモン
ヴェー
佐久間
国家公
定期券
探検家
最終話
##コマ漫画
##ステッド
##ーグナー
##急行電鉄
##日本代表
みどりの
もとより
クロック
ノーザン
ビジョン
プラント
ミッキー
受け取り
小選挙区
申し入れ
自然保護
買い取り
開発計画
##ンステップ
##ection
Grand
グレゴリオ
ヒドロキシ
プラモデル
メロディー
少なからず
##ソナリティー
トップリーグ
ファンクラブ
ライブハウス
東京ディズニー
神聖ローマ皇帝
ポニーキャニオン
プロフェッショナル
University
娼
盆
諡
醜
釘
##かう
##そり
##なき
##の手
##ゴリ
##ダコ
##プタ
##ベア
##メリ
##モラ
##ヨウ
##ロボ
##春秋
##暴力
##柔道
##構内
##酵母
##ote
IF
Li
Sw
ad
ww
イタ
カ所
サバ
ホン
下賜
主婦
久々
側線
入試
内乱
別人
制裁
博物
周防
囲む
売る
太い
失策
委嘱
寄港
幕張
怪人
断ら
架線
汚職
波動
流星
独身
精鋭
素人
羽根
被弾
請負
譲る
越中
跳ね
遷都
野心
陽子
騎馬
##ガイド
##ジスタ
##ジスト
##バイク
##バーク
##化合物
##ring
Del
Vis
オルタ
デート
ネバダ
ピース
レンガ
ワゴン
三遊亭
付け加
代表的
登山道
耐久性
解説者
1793
1824
1833
かかわる
もらえる
デンバー
マシュー
引き出し
果たして
漫画雑誌
相まって
組み込ん
イギリス領
フィギュア
マルティン
自動改札機
##議会議員選挙
アンサンブル
サンティアゴ
コンサルタント
サンスクリット
レクリエーション
##CH
##SE
叛
吟
嶋
此
賈
##くう
##めき
##ノウ
##助け
##収集
##商店
##射撃
##東部
##権利
##矯正
##確認
##細菌
##送り
##電化
##ARA
##uss
KC
アガ
アヤ
コリ
トイ
一瞬
三日
不合
交友
休業
全豪
冗談
勧請
反感
叶わ
各部
同化
垂れ
大倉
客演
密集
属州
帝位
年々
応力
抗原
最良
未遂
標榜
沖合
漂流
白亜
相性
私有
突っ
編み
親方
観衆
観賞
説話
転戦
連発
都立
長大
防備
電極
##ゲージ
##コング
##スラフ
##終了後
)。「
Dis
Pat
とどめ
とらえ
アクシ
シルク
テンポ
ドラゴ
モダン
代名詞
低かっ
使い方
先進国
取り締
大東亜
思想家
改める
素早く
駅構内
##キャット
##プシャー
1807
グリッド
シリアル
リスボン
交通機関
公共施設
北九州市
引き渡し
発行部数
##ナンシャル
インパクト
スプリント
チャーター
戦力外通告
翌シーズン
##テレビジョン
アイデンティ
イオンモール
パワーアップ
シンセサイザー
レニングラード
インディアナポリス
##by
##ml
冨
夷
帖
彰
惟
榊
翅
葵
##ぐれ
##ガム
##ペア
##光星
##商事
##四重
##変動
##診断
##騒動
##era
##ude
JO
OK
Ob
メラ
ワト
一色
三次
京極
出所
動的
参列
吉祥
増田
天草
年中
役柄
戦わ
撮っ
支局
新鮮
暮れ
板橋
活字
盗み
知性
羽毛
舞い
航続
近親
返答
隣国
面接
飽和
##ガリー
##クロウ
##ケイン
##ヒェン
##ブラー
##プシー
##ンタナ
##ural
FOX
Mob
Wal
エステ
サンゴ
ナショ
メイク
上層部
先駆者
室内楽
宮内庁
役立つ
御家人
復帰後
携わり
最上位
未勝利
植物園
発売日
相談役
買い物
##エティー
##キュリー
##リシタン
1802
こうえん
さよなら
ただちに
タイガー
ディック
ニコラス
バルト海
各駅停車
地域住民
契約満了
水力発電
電気鉄道
アレルギー
ツイッター
ヒューマン
ビクトリア
名古屋大学
経済産業省
Thomas
center
チャールストン
アメリカ独立戦争
##GS
嫉
廊
檀
簿
紺
陝
##ずり
##北条
##虫類
##設計
##運行
##osa
!?
UR
ごう
つて
不服
伽藍
入浴
前夜
創価
受諾
古今
叫び
好投
如何
島原
店内
廃線
恒久
手腕
攻防
故意
新宮
村人
欠席
死因
残虐
残骸
決心
王政
申告
直訳
租税
移入
童話
綴り
練り
超越
速さ
陣屋
鳴き
##のため
##シャス
##チスロ
##バレエ
##モスク
##初めて
##苫小牧
##ball
##reet
Lou
MAN
Sam
WOW
www
たばこ
クレー
スカー
ナイル
ナチ党
バード
中距離
個体群
優しい
多摩川
彫刻家
必殺技
日本製
染色体
陸奥国
##ウエスト
1590
1795
Euro
アストロ
ウォール
コントラ
ボクサー
モノクロ
ローマ軍
反対運動
取り消し
明治天皇
途中出場
##エニックス
チェルシー
マウンテン
北海道札幌
##ディスプレイ
アイスダンス
ナッシュビル
世界で初めて
Company
ポストシーズン
ポールポジション
ファミリーコンピュータ
埴
孟
宍
机
聡
薦
雍
餓
麹
##ア派
##ヌイ
##ボエ
##三位
##崩れ
##期目
##気温
##洞宗
##留地
##着き
##置県
##血病
##要塞
##IAL
##ema
##iew
##oot
PT
にっ
イニ
オセ
トキ
バシ
ピレ
ヤー
上原
二塁
亜鉛
侍従
元服
前座
反逆
合間
否決
噛み
土着
多量
天国
妻子
安房
川村
年下
廃藩
愛さ
承継
是非
有田
本誌
潮流
理科
発熱
着実
知能
石山
祝う
至近
街区
覚書
購買
那珂
野手
鉄砲
##ったり
##アシス
##キュラ
##デヒド
##ハード
##ンタン
##工学部
123
480
PAS
WHO
その子
なれる
クレタ
スクリ
センス
タカラ
タスク
デリー
ピート
ヤクザ
乗り場
五丁目
伸ばす
平均値
悪かっ
教え子
日テレ
曹洞宗
東京湾
神学校
見立て
農産物
##フレンド
##ラーメン
##ヴィング
1808
なおかつ
コールド
バラード
ランディ
廃藩置県
##ウィルソン
##バージョン
##フィリップ
##ブラザース
##ュージョン
Franc
さかのぼる
アニメ映画
アリゾナ州
ガブリエル
チャーチル
ベンチャー
##ベイスターズ
お笑いコンビ
バーミンガム
フィリップス
フィーチャー
マクラーレン
##ストレーション
スーパーファミコン
##lo
凸
峯
挽
狐
蜜
覗
##の木
##の陣
##アキ
##チカ
##ワシ
##宮殿
##御所
##海上
##落語
##西洋
##選抜
##ani
##els
"。
1%
NR
くす
さし
マテ
リエ
中途
公平
分の
利害
北見
大神
宇和
山々
岩倉
市議
戦役
推さ
擬似
放浪
日の
最寄
沈み
火葬
煉瓦
牽制
竹下
良質
覆面
警護
財界
賭博
進駐
過失
願っ
飲ま
馬鹿
##ゲルス
##ッチャ
##デット
##ハンド
##共同体
##北九州
##植民地
)」。
Bas
MTV
are
ケーニ
テッド
ナイン
ポーツ
マンス
三味線
人類学
兼ねる
合格者
呈する
喫茶店
四天王
大坂城
支配権
書記長
民進党
##クラーク
##クリエイ
##ランドル
##ロニクス
1828
Arch
Carl
Song
Type
やりとり
アタック
キングス
バラバラ
思い出し
文字通り
短編映画
高校野球
##ersion
キャンベル
ジェノヴァ
ジョルジュ
タブレット
問い合わせ
航空自衛隊
Little
インデックス
ベネディクト
ネーデルラント
プロイセン王国
マネージメント
神聖ローマ帝国
夭
撒
轟
##しさ
##グー
##ポタ
##上皇
##不振
##建造
##捏造
##男爵
##追放
##雇用
##馬場
##-29
GC
my
ps
クン
コモ
シス
ベア
光緒
入間
命題
媒介
実名
容積
平井
念頭
愛用
戦列
指輪
断続
明瞭
時速
歌声
為替
砂浜
積雪
終止
耐震
聴き
花園
西北
迷惑
退治
連鎖
陶磁
##ローム
##市役所
Div
Lib
Out
つなぎ
やっと
ウサギ
スレイ
タンパ
ドット
ハーン
ファラ
ブース
前方後
動植物
反対派
古墳群
守備隊
幼馴染
戦略的
数時間
方面軍
真面目
被疑者
韓国語
##フランク
##メキシコ
##ローニャ
##ヴゴロド
##停車場線
アラブ人
サーカス
ヘリウム
区画整理
地方行政
##スプリング
エレクトロ
オムニバス
プリメーラ
マスターズ
優勝チーム
同志社大学
尋常小学校
サンプリング
##サッカー選手権大会
サウスカロライナ州
オールナイトニッポン
##ki
喰
彷
殊
汐
鋸
##はる
##エド
##セミ
##チク
##事典
##化物
##天使
##広場
##母音
##浦町
##獲得
##用水
##酒屋
##ars
##ats
##ody
##ule
Du
Ke
co
たき
サビ
ツェ
一騎
下す
五島
以東
併記
傷害
列強
南洋
即時
号機
嘱託
天地
店員
断り
杉浦
殺到
湿度
無機
畜産
秋元
秋月
米子
罹患
花崗
花粉
薬学
裏面
覆っ
見物
講じ
転任
随所
飛翔
##イアス
##キンズ
##ケッツ
##ピアノ
##ブラル
##ブロー
##ポルノ
##ロビン
##撮影所
##ange
##ware
GPS
bit
キース
ギルド
トーン
バラク
ランス
入植者
労働力
影響下
熊本市
甲斐国
部活動
##ガスカル
##リニスト
##ログラム
##陸上競技
1790
Free
News
アウディ
サイパン
サックス
フランコ
ブルジョ
プラチナ
中国人民
地方自治
郵便番号
##インド会社
アンモニア
ミニゲーム
モーション
ラファエル
レオナルド
##ファクトリー
オンタリオ州
マダガスカル
インディアナ州
北アイルランド
##フィルハーモニー
オリコンチャート
ナショナルリーグ
南アフリカ共和国
肢
髄
##かえ
##すか
##てつ
##の一
##ウラ
##会談
##公認
##動力
##報道
##恵子
##所得
##晦日
##書記
##林寺
##残し
##熱帯
##脂肪
##落と
##透明
##電器
##面体
##音源
##ANT
##OSS
LA
LM
RD
ひさ
らく
アユ
イヴ
エタ
クア
ゴン
サリ
バウ
ヒメ
ブタ
モト
下北
丹後
代償
企図
会期
偽造
儒教
光年
出塁
刺さ
千年
同線
唐代
国軍
圏内
土俵
失点
嫉妬
小室
庶子
志賀
快挙
悟空
戦乱
手当
撮り
放流
水没
汚れ
池上
知覚
祭典
窃盗
竹中
紀行
膨ら
興し
萌え
落合
語尾
貯蓄
起業
長良
高官
##ガイモ
##ッサン
##INAL
##ideo
")。
Bre
Sol
いわき
サリー
ジーク
パース
ブレン
化学者
吹奏楽
大文字
手助け
掲示板
政治学
町村制
立ち並
翻訳家
財務省
長方形
騎兵隊
鮮やか
##ゴメリー
##トロール
##ベルリン
##リストル
##式野球部
1822
とどまら
プロット
取り決め
大阪府立
天然ガス
##スワローズ
アンコール
パスワード
フィルター
##ンバーランド
Special
##ME
坐
撫
##々的
##たえ
##の人
##の海
##ナビ
##ニム
##先端
##差し
##感染
##理士
##相模
##表現
##oon
##rid
##ula
HM
IA
つま
みの
ボア
ポツ
一周
代え
仲裁
企て
供述
切符
勘定
北区
名作
壊れ
外壁
学芸
実兄
属さ
平山
幼年
廃墟
投影
敗者
明智
明朝
栗田
極度
湖北
疲れ
盟友
石室
筑紫
篠原
統率
花弁
行け
裏側
規程
託し
訳語
谷川
財閥
逓信
通す
造っ
酢酸
金日
闘い
飢饉
魚の
麻布
##チュエ
##ナリー
##メッツ
##メート
##ヴォン
##主義者
##外惑星
##渋谷区
15%
JNN
PSP
new
クラン
ジョイ
スカル
パルス
マラー
ルーク
ヴィー
初土俵
取れる
大々的
山口組
挙げて
映画版
本質的
没する
##ニエンス
##ビジネス
カーター
コミカル
コンビニ
パチスロ
モットー
伊勢神宮
##フォルニア
エクアドル
ブレーメン
宮城県仙台
##コントロール
Corpor
カラーリング
ダイナミック
インフルエンザ
クロスオーバー
コロンビア大学
ロンバルディア
大日本帝国陸軍
##Fi
##NC
##UP
朔
濠
然
縞
聯
誅
##しの
##とき
##府市
##浜市
##英雄
##離脱
##ada
Hi
いざ
イナ
カヤ
ボロ
一期
下方
乱入
亀田
伝染
分水
初等
占い
原宿
土星
城山
大船
従兄
摘発
操る
新編
朝夕
来訪
模範
武藤
深度
発布
監獄
神楽
神様
種々
継が
網羅
習い
菅野
見い
誤認
貫い
長嶋
随筆
##のうた
##カフェ
##セイン
##セナル
##ソーム
##ビッグ
##マラヤ
##マンス
##ールー
##理事会
")」
Inf
SON
インチ
キッズ
ギネス
シモン
勤める
博覧会
対戦車
改革派
気象庁
演算子
男の子
症候群
第一線
花崗岩
足らず
##ウェート
##グレード
##ティーン
##レーダー
Game
Sant
かえって
アッパー
ファイン
フリート
マクシミ
レジャー
世界大会
付き合い
建設工事
映画作品
有料道路
##ニュメント
Intel
アニメ作品
オレンジ色
自己ベスト
アメリカ政府
スリーサイズ
ニューポート
ポテンシャル
ドミニカ共和国
グレートブリテン
##-9
γ
寅
鬱
##ずさ
##テア
##モル
##毎日
##町立
##辞典
Af
Na
TA
しみ
はま
サザ
モス
下宿
五月
体裁
党派
切ら
合祀
大麻
女児
専業
屈折
床下
手足
救わ
気が
水量
田口
発起
空冷
紡績
終日
藤岡
踏む
転勤
酵母
養女
首謀
魔界
##ニジア
##フット
##リバー
##ルーム
##ヴェイ
##協議会
##rich
##ters
370
ATS
Bel
Gra
Hol
」)、
アヴェ
エント
カルボ
クーペ
グアム
ジャイ
チョン
ハンデ
マグネ
ミルク
冠する
夜明け
教育学
未完成
歯科医
無人島
管理下
貧困線
##ウェーブ
##グランド
##ゲームス
##ンタイン
##放送協会
1775
1816
カエサル
スマトラ
リソース
リモコン
乗り込ん
持ちかけ
##マンション
アンドレイ
ギャンブル
クリントン
グラスゴー
ヴァイマル
名古屋鉄道
Studio
アルブレヒト
日本プロ野球
Charles
ニューカッスル
##-4
##-5
##ih
壇
按
瀧
牟
薨
遍
##いき
##こち
##ねん
##サリ
##ッレ
##ノブ
##侵害
##去っ
##園寺
##大成
##島線
##攘夷
##派遣
##賀市
##AME
##NET
##OMA
Ju
VV
きの
中西
乗合
二段
備前
協同
和睦
士気
安堵
家事
届出
島嶼
平民
弾頭
徳間
感度
感想
懐疑
接点
撃た
旅順
旭日
有能
格差
植生
母子
片山
甘い
盗ん
石狩
神事
空調
筆記
終末
美味
聖歌
聴覚
苦情
谷口
鎮守
限度
##チザン
##フード
##ホーフ
##マイズ
##候補生
##gram
MiG
und
キリン
コンタ
ハープ
ミゲル
レイテ
初出演
国際線
建設省
最前線
計算機
##カライズ
##チェーン
##ハーバー
##ラクシー
##ルスーツ
1791
Alex
Park
SHOW
すぐさま
パニック
個人情報
取り出し
天気予報
成り立っ
現実世界
自己最多
航空母艦
追い込ん
音楽学校
##ジャケット
##プロセッサ
##ミステリー
##ミンスター
##ークリッド
Tokyo
アイランド
ポーツマス
Joseph
ハードディスク
##IK
##ks
##ón
揮
杏
渾
炊
##アマ
##サド
##ピエ
##上国
##伝え
##作曲
##促進
##取得
##大島
##心地
##新報
##汽船
##習所
##集院
)→
us
くう
さと
とれ
カミ
スミ
タジ
ノア
パド
ラド
一向
一夜
上智
全権
共闘
加担
右足
同郷
基板
大工
大黒
太宰
定式
履歴
延べ
徴用
態勢
成形
捏造
斯波
有理
案件
武漢
沖の
済む
熱中
生家
病理
累積
老舗
脚色
芳香
苦痛
行程
襲来
転職
転覆
醍醐
金利
降っ
電装
風速
麻酔
##ウスト
##ッコロ
##リーヌ
##ースタ
##定公園
##研究会
##edia
Leg
Max
Sun
mus
まわり
みずほ
カルト
グルメ
シエラ
バース
フレイ
地球人
埋める
天台宗
決めて
石灰岩
美濃国
艦載機
菩提寺
華やか
親しい
非公開
領有権
##ブラウザ
##ホイール
##国博覧会
##電気軌道
##earch
スペック
タックル
チャップ
ヒット作
プレゼン
リターン
一部地域
女子高生
負け越し
車両基地
魔法使い
アミューズ
オランダ語
ブリストル
ホイッグ党
Office
バリアフリー
ポーランド人
マクドナルド
キャスティング
シングルカット
ハプスブルク家
ホワイトハウス
科学アカデミー
フェルディナント
##ko
怨
斡
汁
赦
##うつ
##ずら
##のお
##まね
##メモ
##事詩
##伏見
##体操
##信託
##元素
##外科
##委託
##宮市
##指数
##操縦
##華街
##薔薇
##賃金
##院選
##arm
AE
LR
いさ
ぐる
イネ
コイ
シマ
ヘビ
ミケ
ヤギ
一戦
万葉
円谷
切腹
同党
商社
因み
国名
均衡
変種
変革
多田
官庁
専ら
履修
帯広
年貢
府県
志す
慣性
捕ら
探求
散歩
旧式
村域
松江
流量
牛肉
物事
相場
福知
競艇
範疇
自律
菌糸
込ん
鍋島
鍛冶
関白
集客
靖国
頼ま
飼料
黒川
##アダム
##ザイク
##マイル
##建造物
##途上国
##tain
##ther
Pal
Str
いつか
すずき
ひどく
オバマ
カオス
ジェン
ベルク
ラット
ラルフ
二塁打
例外的
六本木
初制覇
山東省
時系列
最終節
紫外線
##コンサル
##マイオス
1783
Oper
Phil
ROCK
その家族
アッシュ
アングル
スレッド
レーサー
ロッキー
国民議会
書き換え
盛り込ん
総合優勝
自然環境
都市対抗
##ファミリー
##外国語大学
Store
ウィンター
チュニジア
パラグアイ
ビスマルク
ペルシア語
後醍醐天皇
##duction
Center
エディション
タッチダウン
ダイジェスト
マッカーサー
ミシシッピ川
東京都渋谷区
Edition
Society
ボリシェヴィキ
世界ランキング
Facebook
バレーボール選手
アシスタントコーチ
プログラミング言語
##li
檜
殲
烈
爾
眉
竪
##しぎ
##ろく
##イチ
##バニ
##健一
##号機
##囃子
##本土
##爆発
##olf
Ca
RK
tr
ちば
どん
はっ
アザ
オホ
セー
ペレ
一言
井伊
僅差
分譲
合図
吉備
吉岡
名神
呪文
孫権
客席
巡業
幸運
形作
応急
意外
擲弾
新線
決算
沢田
治癒
注入
洋楽
疫病
登っ
白井
監察
知見
祇園
積む
競い
自著
英題
血縁
越冬
部会
長子
降る
随行
##グナー
##サンド
##ンチャ
205
225
』(『
』)、
ガイア
キー局
パッチ
ホース
付随車
効果的
危機感
地下水
天王寺
市民権
本願寺
環境省
聖なる
試合中
運転士
騎士団
##島の戦い
1825
ふたたび
アイヌ語
ギミック
クラッチ
グリップ
フラッグ
ブルボン
ポツダム
ローラー
内閣官房
治安維持
##パーティー
##フォックス
スティール
スーパーマ
プロイセン軍
ロングシート
イングランド王
Champion
撰
楯
豫
##きょ
##なん
##の歌
##はん
##ふく
##もう
##シコ
##ナダ
##バウ
##ヒン
##ルイ
##住友
##十八
##放し
##明神
##武装
##発生
##養子
##-23
##ELL
##och
MK
ども
カビ
ツィ
ブナ
ヘレ
ペロ
一節
不倫
両名
二宮
人為
充填
内村
分社
刑罰
前任
受給
回す
土井
埋立
小柄
接着
揖斐
整合
新種
李氏
東邦
水利
汽車
無敗
白馬
目玉
石造
粉末
粉砕
給料
聖徳
賛否
身代
連日
遠山
配合
酸性
長け
黒澤
##ウンズ
##テンポ
##中継局
##ally
FNS
Fil
Fre
man
がたい
エグゼ
ガーナ
ポリス
マッケ
マッド
ヨット
ラーマ
リヨン
契約金
居住地
建てる
得点王
木曽川
爬虫類
見習い
##キュラム
##レタリア
##統治時代
1812
feat
カタカナ
フェリペ
ライン川
ルーカス
前方後円
受け止め
憲法改正
競技大会
自然公園
角川書店
軍事行動
##イスクール
##ウォーカー
##ワシントン
やってくる
アイザック
ジャガイモ
ステッカー
ステファン
ファイター
ワーグナー
取り入れる
社会民主党
読売テレビ
##マネジメント
インストゥル
コメディアン
ドキュメント
ヘヴィメタル
モニュメント
ホームスタジアム
シュトゥットガルト
屯
濡
癖
頒
##おる
##よる
##わう
##カウ
##カビ
##ダホ
##ツジ
##ノワ
##マキ
##共和
##哲也
##地球
##多発
##撃砲
##権力
##樹脂
##発展
##空手
##芭蕉
##101
Ve
WS
そん
っぽ
一件
三原
中南
他界
俗称
備中
全日
十勝
因幡
夕刊
大師
実物
山川
市外
幕僚
後身
戦没
新京
歌劇
母語
毎秒
法典
流線
清原
獣医
眠っ
空洞
糾弾
肥後
草案
葛西
蓄え
貝塚
賀茂
輝き
返却
遺骨
銃弾
長兄
除名
黒字
##んどん
##アルト
##ザート
##ホーン
##ヤード
##動物園
##新宿区
##自転車
ROM
からだ
アディ
ゼウス
テトラ
パット
ロッド
下がり
信じる
八千代
冷たい
在任中
大理石
愛好家
有名人
段階的
消える
生産性
複合体
金日成
陸軍省
高野山
##スケープ
##ッフェン
##ディーズ
##ポタミア
##ester
1826
ジュール
ラッパー
一級河川
中央政府
公共事業
少数民族
繰り上げ
電力会社
##ライセンス
BASIC
PRIDE
どうしても
カレンダー
シングル曲
ファシスト
フランケン
プラグイン
指定管理者
日本の経済
欧州選手権
##ニュータウン
##ジュニア選手権
##社会主義共和国
ゲームオーバー
パラリンピック
コンペティション
##EP
冪
搾
眞
霜
##さく
##わざ
##アレ
##ネオ
##分類
##合同
##合金
##大分
##山田
##惚れ
##残さ
##直後
##請求
##BOX
##une
)/
Bi
HC
IW
Os
UM
”(
あけ
おろ
ドニ
ネル
パト
下半
佐倉
刻印
加水
厳重
司る
埠頭
壮大
大乗
奉天
子女
射出
小豆
局面
山上
巫女
待避
抜群
挑発
景勝
曲面
構文
機首
殲滅
水谷
注ぎ
海里
清国
熱海
独奏
独学
皇位
皇居
盗賊
直行
税務
稼い
縦断
胎児
自慢
舷側
菌類
誘発
軍備
震度
館内
高尾
高岡
##きょく
##ウェブ
##スカイ
##ティナ
##デレラ
##バッグ
##フック
##マップ
##レッズ
##代理店
##北条氏
##月場所
##ista
134
256
999
IOC
PAR
おおい
みちの
アサヒ
エキス
セーヌ
タイト
テント
ペンタ
マッサ
リハー
古典的
向ける
喫する
格付け
準ずる
等しく
総監督
財政難
開ける
##イスキー
##ウェイン
##ナンデス
##ロイヤル
##経済成長
##ander
1582
1804
たちまち
インスタ
ウェイン
チューブ
フライ級
三井住友
共同開発
執り行わ
書き上げ
##カルチャー
##リオールズ
##リバウンド
Elect
アーカイブ
インテリア
エンブレム
クウェート
コンパイラ
デュエット
ホラー映画
リハーサル
リバウンド
ローマ皇帝
ワイド番組
日本武道館
イギリス政府
カリキュラム
ニューギニア
パラシュート
ユークリッド
日本統治時代
東京都新宿区
イメージキャラクター
インストゥルメンタル
榛
禄
諭
販
鍼
##なの
##べり
##ナリ
##代数
##公団
##区分
##受験
##天候
##戻さ
##禅寺
##総監
##蒸気
##闘士
##ESS
##GBT
##ILE
##eng
##ets
(+
Ap
Av
RP
だん
つね
ネス
ムラ
上人
亀裂
享年
信奉
再演
加群
募金
参与
土浦
大道
妄想
子宮
密輸
寛容
専制
左足
平氏
廃駅
彩色
振っ
散見
本所
業種
水槽
水車
決行
真正
石巻
神輿
空い
脊髄
自軍
西軍
視力
諸語
軽便
防い
陸路
類型
##グラー
##ゴート
##ザンヌ
##ッチン
##ッツィ
##ツール
##バイト
##メネス
##掛かり
203
Mal
gro
なくし
ゴッド
タミル
ダライ
パラオ
ボギー
主義者
乃木坂
島津氏
強まっ
捧げる
欠ける
深める
番組名
競技場
細長く
西園寺
贈り物
飛ばし
高品質
##シアード
1780
1829
Gold
comp
なぜなら
アフター
サミット
ドイツ系
ハードル
マリアナ
メモリー
ユーティ
地元住民
知らせる
興味深い
##淡路大震災
ICOCA
まちづくり
アーセナル
インディー
エセックス
マルセイユ
ラジオ放送
ロシア革命
代表チーム
朝日新聞社
##車両センター
Island
地上デジタル
##エレクトリック
Richard
##BF
##GE
尉
毘
餅
##しむ
##の役
##ソロ
##伏せ
##写像
##同型
##庭園
##徳寺
##抜く
##輪車
##obe
##uel
Ha
pH
いや
くし
オタ
ノリ
一掃
下向
丸い
亀山
仏像
例え
侵食
傾い
前漢
力学
北山
北朝
原文
叙爵
口腔
叫ん
吉原
土塁
在庫
地雷
子弟
岡部
岩田
左舷
常盤
懇願
懲戒
打線
整形
斬新
杉本
気管
江蘇
流布
牡馬
王冠
画風
相良
矯正
礼儀
紙面
絶大
繊細
脇役
自機
萩原
西大
覇権
軍医
醸し
鍛え
電解
飯塚
高位
高砂
##っぽん
##アース
##サーズ
##シウス
##ジャズ
##ソンズ
##ティコ
##テレス
##デッキ
##ノラマ
##ヤーズ
##ヴォー
##大聖堂
##生放送
##ique
701
Big
GNU
Mil
RAD
Wil
ver
うかが
ナムコ
レート
借りて
同盟国
名探偵
専用線
投資家
授賞式
掛かっ
搭乗員
教職員
楽しい
白亜紀
鉄道線
##ナイダー
##リーンズ
##ating
1776
FOMA
KDDI
とどまる
アダムズ
スクエア
パーカー
ボルドー
ボーイズ
ロナルド
ロータス
取り下げ
取り除く
後北条氏
日本列島
立教大学
経済成長
落ち込ん
近畿地方
重巡洋艦
##デイヴィス
Class
ウェスタン
ボローニャ
目の当たり
農林水産省
George
Server
United
エクスプレス
ステアリング
メソポタミア
高度経済成長
General
サイレント映画
ニューメキシコ
ワークショップ
デビューシングル
ロングアイランド
⇒
傀
廠
蘆
鹵
##うた
##さえ
##ツカ
##バカ
##切手
##削減
##受信
##年始
##払っ
##改良
##日町
##福音
##部門
##ipp
##ret
('
EV
XX
Ze
かご
なつ
ぶら
カト
クィ
シノ
セビ
セロ
ゼミ
ナウ
ネブ
ベニ
リマ
一変
一座
上面
二度
修め
四股
城跡
大竹
大腸
奮戦
嫌悪
宣教
宮川
専売
崇敬
帝王
干拓
幼生
志村
応仁
戸塚
掘っ
散布
斡旋
於け
松村
松阪
欠乏
殉教
気味
生母
異色
疾病
直立
神仏
組長
絵柄
臣下
菩薩
製紙
西経
要人
診察
評議
議院
財源
転入
関根
青島
驚か
黒く
##サント
##レイズ
##徳天皇
##特別市
##ella
152
Mem
TOP
mod
あさひ
それで
ウォル
コーポ
ジャム
ディン
トマト
トール
ヘレン
ボーン
ポーズ
マナー
リーズ
レキシ
ワイヤ
亜熱帯
値する
千秋楽
千葉市
外れる
大気圏
引き離
根拠地
正方形
連載中
##ウィウス
##ウェルス
##チュード
##トゥール
2021
おもちゃ
なくなる
シーア派
ステファ
トレント
ドロップ
バングラ
メーター
ユーモア
ランナー
ワースト
協同組合
受け付け
国際社会
宇宙空間
年末年始
引き返し
弥生時代
日清戦争
聞こえる
英語表記
逃げ出し
連載開始
##ティンゲン
フットサル
Street
カスタマイズ
コックピット
サクラメント
ジャイアンツ
フィッシャー
ブックレット
ミッドウェー
ヴェルサイユ
コンビニエンス
ノンフィクション
フットボールリーグ
##""
##YO
##YP
##hr
厄
噺
塹
桟
煩
皐
睦
誉
跋
##くじ
##ぶつ
##ゴヤ
##ゼロ
##トバ
##メニ
##ヨシ
##布告
##教団
##田氏
##遠征
##led
(※
こっ
めぐ
やつ
ゴロ
スエ
タコ
タナ
モラ
リガ
不便
不備
今年
伊那
休み
体質
傀儡
光度
公理
右舷
吹替
国造
土台
埋蔵
大宝
天竜
寄席
島民
巨額
引数
手形
支隊
教訓
断定
昇段
曲名
書体
朝貢
校内
極力
毎時
洗濯
湖沼
満塁
田代
目安
簡潔
線維
臨済
自重
蔓延
誓っ
豊後
負わ
遊戯
部類
配さ
閉校
阻ま
降雨
随一
雇っ
非合
##アレス
##エイジ
##グレブ
##ティル
##ノース
##バーツ
##ブソン
##ンドゥ
##ージン
##和歌集
##本塁打
##ateg
212
RAM
お気に
じけん
アステ
パラマ
フェデ
プトレ
ベンゾ
下り線
二度と
出版物
参事官
叙事詩
合唱団
専門職
小麦粉
慰安婦
放射能
日本郵
日蓮宗
機械化
##スペース
##美術大学
1819
SMAP
アラゴン
アンカー
ゴルフ場
タタール
ヒマラヤ
フォール
フラワー
フレッド
大量生産
工業団地
息子たち
情報収集
日本基督
明治神宮
結びつけ
アイオワ州
アーノルド
ギルバート
ダイレクト
テレビ中継
バビロニア
フェンダー
レインボー
現役引退後
##ッセルドルフ
ベオグラード
アレクサンドロス
スペースシャトル
チャンピオンズリーグ
##SU
也
呑
慌
晃
贅
雁
##へん
##グン
##バタ
##ミリ
##人口
##崎町
##帰り
##微分
##新町
##気象
##消費
##積分
##野川
##鳥羽
##con
##err
.」
FK
サメ
リブ
二期
二男
付か
大豆
審理
小作
年数
座り
廃れ
後発
思惑
捕捉
数量
星座
本隊
樋口
民生
海部
済ま
準急
滋賀
漢文
熱い
甲殻
直近
経口
若さ
衣料
触発
討死
讃え
迷い
雇い
領国
駐日
##の政治
##ろしい
##ウォン
##コープ
##ゼット
##ナムコ
##ニョン
##保険者
##爆撃機
##atch
##udio
Vir
いただ
くさい
せかい
ばやし
イブン
シェフ
テール
ポッド
モニタ
モーリ
リフレ
一人物
事務官
作品賞
切り替
割り振
協奏曲
水上機
特別区
相次ぎ
裁判長
遠距離
音楽性
##スティー
##セクター
##労働組合
1570
けいさつ
アイゼン
アントン
イントロ
ウィーク
ウイグル
グローブ
シェーン
デューク
ニュート
ハロルド
上智大学
少女漫画
明治元年
柔らかい
県立大学
自動車道
##ブリュック
##欧州選手権
##intosh
Light
WOWOW
score
ドッキング
ライブ活動
チューニング
チューリッヒ
テーマパーク
ランカスター
京都帝国大学
北海道札幌市
東海道新幹線
音楽ユニット
アイデンティティ
##mb
●
償
剃
巌
焚
肋
葺
鞘
##うら
##さり
##たす
##へい
##れい
##オウ
##モト
##中野
##出せ
##台風
##成分
##教室
##智子
##検察
##深く
##男性
##真宗
##祥事
##綬章
##解除
##運営
##関節
##飲料
##AMA
DA
FE
HR
NN
PM
Rh
える
がら
らん
わし
オデ
オラ
カバ
タク
トク
メト
ラボ
ヴュ
一味
全仏
単勝
反共
名字
吸気
坂田
夏期
大宰
嫁い
嫌気
孫文
寄宿
対し
弾劾
心情
成体
捕縛
新居
旧道
林家
欲望
決裂
温室
独り
福原
船で
西国
遠方
適時
重慶
重症
鋭く
鋼鉄
除隊
頒布
高低
##イット
##ウィー
##サーバ
##ストー
##ient
207
ESP
Hum
Jud
PRO
Ult
さほど
ダルマ
ロート
古文書
守護神
常陸国
捕まえ
替わっ
最先端
気づき
異世界
程なく
薬剤師
起こら
軍令部
開催国
##イロード
##フェラー
##ublic
1797
2400
Ever
キルギス
スピーチ
トスカー
ノウハウ
ノルディ
ルイーズ
ロワール
ローマ人
人として
取り込ま
弦楽四重
情報処理
改造内閣
文藝春秋
浄土真宗
産経新聞
福島第一
立ち入り
西側諸国
西武鉄道
見つかり
お気に入り
フランドル
日本の歴史
法律事務所
海上保安庁
電子メール
##マネージャー
アムトラック
ジャイアント
モビルスーツ
全仏オープン
宮城県仙台市
ライトフライ級
エンジニアリング
Macintosh
プレイステーション
Corporation
##NH
##oz
娶
旺
##デム
##ナガ
##ネラ
##ヤル
##出そ
##基金
##太陽
##市駅
##法廷
##狩り
##遊び
##OME
##vex
MY
PI
Sa
Sn
ab
せつ
た者
なだ
ラビ
レフ
今村
似る
侮辱
傾き
光沢
全幅
公道
初年
原生
同情
在外
士族
変則
安楽
帰順
座礁
役に
操舵
数人
方角
極秘
法科
消去
狂気
発芽
白黒
瞑想
竜王
第五
英字
解き
赤く
連作
部材
銀色
露天
##シナ海
##ソウル
##マルク
##ライク
##リーノ
##不動産
##取れる
Jon
Tim
たかし
よかっ
アカデ
ガンマ
シャツ
テオド
ホーク
モリス
ロイド
先立つ
原動力
大晦日
延長戦
応える
手伝っ
水族館
総領事
自由度
航空団
議事堂
輸送機
銘打っ
##サークル
##ジャーズ
##プテスト
##ラウンド
##ンドラー
##型駆逐艦
##otten
1787
1823
たいてい
たかはし
ならでは
クリック
ソ連崩壊
ファイブ
ファント
フェンス
中国政府
付け加え
任期満了
引き揚げ
日本銀行
迎え入れ
高速鉄道
##しゃじょう
##システムズ
##レスリング
オーガスタ
ディストリ
パルチザン
プレイオフ
ボイコット
ランニング
千葉ロッテ
海軍兵学校
##キングエリア
プロレタリア
ムッソリーニ
原子力発電所
##エージェンシー
バンダイナムコ
フレームワーク
コンピュータゲーム
コンスタンティノープル
ا
燈
蛮
閃
雀
##こみ
##のめ
##ろさ
##バシ
##ヴナ
##乗車
##危惧
##同時
##奈良
##寺町
##操作
##曲線
##水路
##沢駅
##法院
##ift
##ova
Mk
PE
きよ
イシ
セオ
ナミ
レガ
ワニ
三沢
上皇
下着
世に
丹羽
人柄
作製
個室
偏諱
先導
入幕
全廃
分光
初旬
双対
堀内
塩田
増発
変電
安保
安東
室蘭
密教
屋号
左腕
序列
強奪
恩師
携行
春の
本科
江南
泥棒
満期
知多
空想
総監
舞踏
苦悩
荊州
襲う
贈呈
返事
部局
重度
面影
鹵獲
##ごとく
##われる
##ジェル
##ヌール
##マイト
##ラップ
##レアン
##幾何学
##発射管
##isch
##ourn
124
131
132
153
213
310
Ant
Bra
NEW
うつ病
おさめ
つづけ
クジラ
トラス
ドロー
フォア
ムーブ
リュウ
一週間
不合格
吾妻鏡
呼び方
四股名
大通り
弦楽器
新潮社
核実験
水溶液
町並み
留まら
相次ぐ
経験値
##フロント
##ヘンリー
1781
Rail
that
どんどん
はじまり
エドガー
コスプレ
デパート
ニクソン
バチカン
マーベル
ミリオン
中心人物
取り残さ
戦国大名
持ち出し
歴史学者
独立戦争
絶滅危惧
##ission
コーディネ
テクニカル
フィアット
メカニック
ロッキード
魚雷発射管
##シュヴァイク
イェール大学
グレゴリオ暦
ソフトボール
フロンティア
プロパガンダ
##カリフォルニア
クリスティアン
マイナーリーグ
ライトヘビー級
##フィギュアスケート
##ür
僚
升
嘴
嵩
幣
某
橙
##にか
##ガキ
##ゾル
##代行
##先生
##匈奴
##君主
##周波
##対空
##怪獣
##東北
##横断
##談会
EB
Ev
はめ
テラ
レナ
丁寧
中庭
件数
作ろ
兄妹
先天
内臓
収拾
品目
啓発
大岡
急い
怪奇
悪さ
教職
文体
新川
明神
梶原
欠き
武官
死別
海浜
父方
王様
異説
皐月
相棒
空爆
薨去
計器
課し
農協
配管
陪審
青梅
音質
音韻
頼る
類別
##がかり
##エリー
##ラーオ
##出版社
##刑務所
##angu
##endo
151
CAS
MIT
NCA
STS
TAK
いとこ
リンダ
代々木
伊集院
前向き
副知事
吸血鬼
擲弾兵
日本史
格上げ
水雷艇
登録名
目立た
見直さ
軽井沢
防衛省
陶磁器
##こうとう
##イヤルズ
##イースト
##ケネディ
##ジェント
##音楽大学
##azine
1778
HTML
そっくり
アイコン
カロリー
カーボン
ガイウス
スペシャ
スーザン
ソプラノ
ハンセン
ホルモン
モーガン
予定通り
協力関係
基本計画
山岳地帯
弟子入り
東武鉄道
西インド
読み切り
通信販売
##セントラル
##チュアート
##ネイション
##パイロット
##ラクティブ
##ージェイズ
##ージャンプ
##Script
Andre
ソクラテス
トーク番組
フォレスト
##サッカー協会
ザルツブルク
バラエティー
バルカン半島
レキシントン
歌手デビュー
バングラデシュ
コンビニエンスストア
##Ch
葦
蔑
##ぐら
##どか
##びと
##ヌム
##ハト
##体験
##失調
##宮駅
##巻き
##手術
##新星
##水準
##知ら
##置き
##ida
"|
FU
cl
ft
きく
すご
つり
はつ
ふと
シム
ワラ
上梓
仲良
信条
光子
出国
利き
前記
匂い
命ぜ
地殻
塹壕
太く
子息
実情
家中
岩国
弾性
技量
挫折
握手
数度
文科
文筆
旧型
暗く
木戸
東軍
染め
横田
水軍
浮遊
湧水
漁船
無色
白紙
眠る
税収
総計
義父
臨海
色濃
連接
頭骨
頼む
首領
黒星
##かせる
##による
##オーク
##スカヤ
##ソーン
##ディル
##バシー
##ライヒ
##ロート
##ワゴン
##大空襲
Ben
Boy
INS
Nat
Pri
おまけ
こうじ
ジュラ
ストレ
バッジ
パウロ
世の中
交響曲
伸び悩
備わっ
制御車
効率的
大型車
学士号
度合い
必然的
正当性
法律上
混じっ
研究生
肩書き
蒸気船
追いや
都市間
##グラフィ
##スコート
##デーニャ
##レコーズ
Just
STAR
West
てつどう
ひろしま
アーロン
クビライ
スムーズ
チャイナ
ディーン
ファイア
フィード
ロックン
出場選手
国務大臣
専修学校
押し出し
日本車輌
移り住ん
義務教育
魔法少女
##ちゃんねる
##コンサート
##ブラルタル
Stand
Suica
できるだけ
オーランド
キリシタン
コロラド州
コンパイル
シュタイン
常務取締役
ヒスパニック
レジスタンス
Express
サンアントニオ
ジャパンカップ
ブラックホール
プトレマイオス
マクシミリアン
ユニバーシアード
ヴァイオリニスト
週刊少年ジャンプ
##FS
σ
厨
幡
悦
蟹
##ふん
##らう
##ジエ
##セグ
##ゾー
##トフ
##ハブ
##ミク
##ロク
##之島
##井駅
##体字
##健康
##変数
##戦記
##持っ
##果て
##直人
##積み
##空気
##結婚
##続け
##退職
##酸素
##鹿児
##ira
AU
VI
VT
サボ
ペプ
マウ
主幹
主眼
京畿
伏せ
内面
右腕
回航
室長
家政
屏風
山村
巻い
平戸
平穏
憲章
拝謁
斑紋
新日
日吉
桜の
植木
権現
橋上
比重
港区
略さ
石材
祝い
福澤
紫色
艦砲
観覧
謹慎
転生
題さ
飢餓
##ティヴ
##テマラ
##デック
##ブルグ
##ミンゴ
##メイド
##検察庁
##ious
2.5
215
365
DIS
HMS
Les
SIM
all
mac
さんま
のみで
アイド
コスモ
サファ
テック
トロイ
ビック
ブレス
マネー
ライス
一体化
不規則
代理店
初回盤
右側に
国有化
岡山市
攻める
条件下
生理学
遊牧民
飛び地
##シンガー
##ッパーズ
##ビリティ
##ベックス
##リエット
##ローカル
##維新の会
1784
Camp
どころか
なかでも
オーボエ
オーロラ
チャネル
ノーマン
ハングル
一般市民
先発投手
巻き込ん
引き連れ
持ち込む
資金調達
長編小説
##アベニュー
##マリーンズ
Sound
アーネスト
スクロール
ネブラスカ
ミネソタ州
リアリティ
切り替える
水力発電所
燃料タンク
県庁所在地
Engine
オリジナル曲
カートリッジ
ジブラルタル
ソウル特別市
ホームゲーム
インタフェース
Institute
エンタテインメント
シューティングゲーム
ビクターエンタテインメント
艤
芋
閻
##の家
##バサ
##パウ
##リケ
##下院
##中止
##互換
##割れ
##喚起
##因坊
##大王
##我部
##河原
##治虫
##補佐
##返っ
##還元
##集編
##領主
##領土
##ATA
##urg
Di
Hy
そび
ハビ
ムル
ララ
下手
下段
世子
予め
兵隊
内海
処遇
分隊
北川
卸売
収支
大隅
宮沢
宿舎
小国
座長
強風
成っ
手元
抗日
採決
横行
歳月
源義
爆笑
独断
直交
県庁
矢作
硬い
祝賀
答申
紅白
艤装
薔薇
討た
追贈
速球
過大
郡上
釜石
食肉
高槻
髪型
##オイル
##スタル
##チオン
##ハール
##バール
##ホース
##モニカ
##ルツァ
##不二雄
##天文学
##福岡市
##mann
##ster
ANA
AND
Mel
RAW
Roy
がよく
ギャル
ケイト
ニトロ
ペダル
ルース
不祥事
中南米
京都駅
創刊号
取扱い
大本営
富裕層
居酒屋
形式的
後白河
新宿駅
東大寺
浄土宗
総集編
締めく
赤十字
都市化
預言者
##アングル
##ウォーク
##クルーズ
##スポット
##チューン
##ッカート
##バートン
##ランジェ
##ージング
『""』
きちんと
てんとう
にっぽん
われわれ
シリアス
ペルシャ
モザイク
世界恐慌
人間関係
公共交通
取り込ん
家庭教師
情報提供
民事訴訟
環境保護
貸し出し
##コロンビア
##教育委員会
アナトリア
ウォーレン
コレクター
シンデレラ
ツーリング
ディーラー
ボウリング
レオポルト
総合格闘家
アップロード
サルデーニャ
ニコニコ動画
ピックアップ
フランス海軍
ミュージアム
モンテネグロ
ラジオドラマ
トレーディング
ライセンス生産
ランドスケープ
##エンターテイメント
ブラウンシュヴァイク
##BE
##Pa
##kt
##xy
姚
萼
薪
躊
##そか
##ぼん
##キラ
##トウ
##ハネ
##フリ
##ベク
##ミラ
##備え
##出血
##割り
##十六
##商人
##改造
##消し
##牧場
##銚子
##ady
--
BP
ET
OL
つば
へん
マヨ
ユグ
入江
名手
土手
大金
小字
小石
川辺
序文
張ら
後悔
押収
摂関
有意
有線
木の
未定
楠木
水運
沼田
深川
混沌
減る
漬け
物産
直す
着色
等価
組閣
網走
群衆
職種
肥料
育児
花嫁
衣類
西条
躊躇
身元
車道
述懐
道教
酷評
陶芸
隠蔽
電線
香料
駆除
##たかも
##エイト
##カルロ
##チョン
##ナンス
##ince
143
209
460
Ear
XML
YOU
うどん
たなか
またも
まとも
キッド
キープ
グルタ
ジャコ
ソナー
ハイチ
ホノル
上がら
中曽根
傷つけ
入場者
向かわ
吹き飛
奴隷制
対象者
州政府
市庁舎
社民党
背負っ
見返り
試運転
貯水池
近江国
##イヤーズ
##シャイン
##デマンド
##トランス
##体育大学
##多発テロ
NCAA
あたかも
よしもと
カリウム
クラウス
クラフト
シャシー
ペーター
レプリカ
ワンダー
公立学校
取り巻く
執行猶予
宇宙開発
愛知県豊
手塚治虫
新約聖書
日本中央
神戸大学
立ち寄っ
##サンプトン
##ディーゼル
##ムナジウム
Trans
オホーツク
カルチャー
カンザス州
スクリュー
デイヴィス
ハードコア
ピエモンテ
プリキュア
中央委員会
前方後円墳
##レンジャーズ
オークション
オースティン
カナディアン
シークレット
全豪オープン
公共交通機関
インターセプト
ハットトリック
コンストラクター
コーポレーション
デビューアルバム
吻
彭
忙
滴
裴
這
##カエ
##ガモ
##シシ
##セレ
##ビィ
##プン
##全権
##名帳
##城郡
##婦人
##役場
##楽天
##正義
##泉寺
##警報
##OLD
##URE
うし
かっ
とし
みん
カネ
ギー
シボ
ツル
ピル
一元
三女
下地
中宮
伯領
入校
副題
南宋
同乗
同心
同然
吹く
告訴
困っ
国共
大仏
大都
安達
宝物
巡査
年長
建ち
弘治
弾い
悪性
新町
更迭
服役
枯れ
枯渇
残念
水着
油田
沼津
溢れ
濃厚
球形
環礁
留意
病変
登頂
着物
石勒
節約
絞っ
続々
肥沃
自転
花序
葛飾
視認
貫く
通年
遺書
重き
長身
静脈
##かかっ
##アウグ
##スペル
##スロー
##ハット
##ボーグ
)』(
206
501
Lim
アセン
クルド
クレア
フック
マグマ
リニア
中西部
作品集
原住民
方法論
標準化
機械的
機関紙
治める
海王星
消防署
特定非
目立ち
超新星
電磁波
黎明期
##さいたま
##キーパー
##ザクセン
##ステイン
##ベリウス
##モンゴル
##ヴェント
##ental
##ional
1794
Core
York
おはよう
すっかり
やむなく
アドリア
イエメン
コスモス
シャーシ
セクシー
バーゼル
ブルーノ
劇場公開
呼び出さ
国民投票
姉妹都市
急行列車
持ち帰っ
経済政策
電話番号
Story
てんとう虫
オセアニア
グアテマラ
ステロイド
トロフィー
フレッシュ
神奈川県立
パイプライン
青山学院大学
##iversary
Network
アームストロング
パーソナリティー
##ev
綺
鰓
##いす
##の夜
##の町
##スイ
##パニ
##リョ
##和感
##太夫
##奴隷
##手続
##抜か
##抵抗
##染色
##留め
##相互
##第三
##解説
##認識
##里町
##陽市
##騎兵
##ICA
##ISS
##ird
##itz
##lad
ちか
ソチ
ドレ
ミツ
ミヤ
中興
九段
五大
厚み
反戦
右肩
名勝
和声
商法
四郎
多忙
天和
寿司
小坂
小数
小早
市電
式内
心筋
戻ら
抜粋
敷い
既知
橋脚
水晶
水色
沿道
混ざ
湾曲
潜航
献呈
疲弊
省庁
絵巻
耕地
視線
詠ん
退化
間際
隠岐
面々
##まわり
##スルー
##ハイド
##マリン
##営業所
ALL
Bus
JBC
MGM
Pan
あらた
いずみ
なおも
はいる
ふたつ
カエル
ワルツ
京セラ
創立者
加速度
北京市
大和国
打上げ
技あり
料金所
格納庫
演奏家
王党派
編曲家
行ない
複素数
見なす
覚える
連結器
運動量
違和感
関東軍
##アクセス
##テイラー
##ブレイク
##ritic
1585
1760
1827
CLUB
Road
なかむら
まっすぐ
カナダ人
ホールド
中央銀行
副委員長
北大西洋
取り込み
大会出場
女性歌手
小中学校
日本女子
日本陸軍
明治以降
積み重ね
精神科医
被保険者
規定打席
黄金時代
Wrest
グルコース
コロンバス
コンシュー
ノヴゴロド
ブースター
海軍航空隊
特定非営利
##ダイヤモンド
##パシフィック
##eration
インディペン
ピアノ協奏曲
出場停止処分
福岡県福岡市
......。
ファイナルファンタジー
ユニバーサルミュージック
##FE
##gg
##zy
叡
嗅
択
拿
蚕
謁
鮎
##ん中
##アタ
##ポネ
##体系
##印刷
##照灯
##特定
##登記
##直樹
##秩序
##符号
##重量
##領域
##首長
##DOS
##ECD
##che
##rum
.(
TG
gl
めん
アエ
グー
シネ
パロ
一途
今治
休場
削り
双発
古参
咲く
因縁
在り
坂井
大隈
学力
宇多
寵愛
寺田
履行
左遷
忍び
憎悪
採る
敷き
旧名
果樹
棋戦
権勢
沿革
減衰
物議
病没
白く
真偽
絵師
脂質
華北
薄れ
見地
起伏
退き
退陣
適性
遼寧
銀貨
鋼板
関門
障壁
##がらせ
##クレイ
##チェス
##ドゥス
##バルド
##ベルグ
##ミアン
##ワーヌ
##保護法
##競馬会
##line
255
ATC
JAS
WRC
cap
かわし
すすめ
はさん
まずは
アヘン
ガルフ
キツネ
クロウ
バルバ
パウル
レトロ
上杉氏
再利用
大陸軍
巨人戦
当たら
徳島市
心不全
性行為
成功率
掛ける
甲殻類
発起人
被災地
解像度
運輸省
配偶者
題する
高架駅
##ジューク
##ダーマン
##ヒトラー
##ランブル
##位決定戦
Pres
ともなっ
カップ戦
グレッグ
ジョーク
スイング
スタック
セネガル
ノーマル
ハロゲン
ブリテン
モンロー
切り離さ
執行役員
当たり前
成田空港
払い下げ
立て直し
聞き入れ
試合開始
##インディア
##フォーラム
Angel
Green
House
アラバマ州
プログラマ
リバイバル
ヴァルター
全国ネット
小笠原諸島
##アンダーソン
Rotten
ベクトル空間
ポルトガル人
Science
アリストテレス
プログレッシブ
ワンマンライブ
東京地方裁判所
特定非営利活動
デュッセルドルフ
##-8
##IZ
嘔
慧
礫
穿
##しり
##たた
##べつ
##まず
##ゆり
##レド
##中部
##仕事
##供給
##公論
##十三
##台地
##回復
##拮抗
##指向
##状腺
##監査
##茶屋
##藝術
##行進
##重工
##iko
!(
FG
Kh
お客
くわ
ざん
ふん
ょく
バト
三ツ
下町
不採
不時
不死
予期
二番
付し
伝授
元治
円柱
十一
叔母
受動
図案
国庫
大勝
天空
安徽
平塚
幻覚
後裔
微細
患い
悩ん
技巧
抜か
拿捕
挙動
振ら
捻出
排泄
敦賀
新制
次数
残基
民営
没頭
火口
無力
由良
硝酸
神明
経理
結社
緩衝
背鰭
自明
茶屋
薬局
街頭
貞享
貼ら
退院
金銀
黄河
##ケーキ
##ズレー
##ゾール
##ッコミ
##ティマ
##ハリス
##価証券
##広域市
##性気候
##活性化
##販売機
##ific
##orld
001
315
380
950
MAR
MID
あがっ
ことば
アニー
アンジ
イルカ
エスペ
カメル
サハラ
バレル
ブリス
マッハ
下回っ
乏しく
保安官
勝ち進
尾張国
延びる
排水量
最年長
河南省
生産者
臨済宗
行き詰
週刊誌
願い出
馴染み
##シルヴァ
##ストール
##ッキーズ
##ドラフト
##ヴァール
##国定公園
##専用道路
##高速鉄道
##iness
1811
avex
オリバー
クリップ
ジャンボ
ストラス
トーキー
バックス
ビジター
ボディー
一社提供
上流階級
位相空間
共同研究
地域社会
宇宙戦艦
引き取っ
引き取ら
昭和時代
海水浴場
航続距離
言い伝え
##タンパク質
Found
Heart
Peter
アスリート
アレクセイ
ハイウェイ
##テクノロジー
##太平洋沖地震
Tomato
クロスシート
グループ会社
ヒンドゥー教
ミュンスター
国家社会主義
第三セクター
日本中央競馬会
Research
ガソリンエンジン
世界チャンピオン
特定非営利活動法人
千葉ロッテマリーンズ
東北地方太平洋沖地震
##FT
##cl
且
膵
##ぷり
##ぽう
##ガウ
##ザメ
##ズナ
##ヒス
##全員
##区画
##地位
##字体
##届け
##窓口
##終盤
##財閥
##郷町
##ISE
##ORY
(;
IL
Ol
なめ
みえ
よっ
オク
カド
クエ
シオ
シダ
タフ
ラマ
一意
不評
中井
低木
保養
修学
全羅
八百
北畠
口頭
同州
四条
執る
堀田
夕張
大泉
女房
尾上
山王
常備
庄屋
廃刊
戦局
所沢
振舞
救世
新年
早速
曲輪
本気
溝口
潤滑
熟成
産み
用紙
皇女
盗ま
破滅
祝祭
美作
脅し
臭い
船内
葉柄
西岡
訳し
豊川
贅沢
連打
骨髄
##かしい
##クロム
##グレー
##ジカル
##チップ
##ドゥー
##ハーフ
##フェス
##ベルタ
##ボイス
##マッハ
##メチル
##ヤマト
##レルモ
##ーロス
##科学部
290
720
Cat
EMI
MSX
Mot
Nav
Tre
ごとく
クラク
チャド
デイヴ
トレイ
ノベル
ピンチ
ペリー
ルソン
一斉に
下水道
並べる
中央線
交わさ
六丁目
加害者
動物学
定時制
小型車
小早川
敢えて
早くも
浮かび
美術史
耐える
英文学
表向き
近距離
類似性
##イメージ
##シャール
##チュラル
##ドリーム
##フォニー
1782
Bell
With
cont
なぞらえ
インフォ
エミール
コサック
チェリー
チャット
テュルク
ニューズ
フリッツ
化学物質
医学博士
名古屋駅
情報通信
手がかり
男性声優
行政管区
赤ちゃん
送り込ん
##テレビ放送
##ボナパルト
FINAL
Flash
ジョーダン
スクラップ
スティック
チェスター
ドイツ空軍
##オーケストラ
アクセサリー
オフィスビル
コードネーム
トップクラス
パーフェクト
プライバシー
広島県広島市
##パフォーマンス
イングリッシュ
カンバーランド
スポーツクラブ
##こうとうがっこう
##formation
##)、
冀
腫
錠
髭
鷺
##こい
##そば
##もる
##伯爵
##北町
##国鉄
##孫子
##年少
##経験
##記憶
##読み
##賞金
##転換
##ICK
##ume
CI
MW
hp
sy
キヤ
スン
ポト
レズ
上奏
主計
便器
内科
化け
原曲
坂東
堀川
外傷
大雨
富岡
崩落
掴ん
新庄
旅人
本間
機内
次作
比し
水兵
水陸
法曹
百合
空位
竹田
練馬
肥満
航法
若葉
落葉
葛藤
見下
貧乏
追随
連敗
降雪
難色
魅了
魔物
##シェー
##ッキン
##ッサウ
##ドンナ
##ネック
##ピード
##ヨーム
##家協会
##ford
##osph
##side
142
172
208
312
Jul
Pop
Sim
Sur
Top
ser
かねて
とうき
カシオ
カノン
カリス
カンパ
スライ
スラム
セーフ
ニカラ
フレー
ホープ
仙台駅
厚生省
合わさ
国内線
変電所
多国籍
大内氏
大気中
強制的
枢密院
気づか
真ん中
立ち会
蛋白質
証明書
試合前
辺境伯
間接的
集大成
領事館
##ハイマー
##ライザー
##運動公園
##other
1788
2200
OECD
つとめる
チャック
ハワイ州
プジョー
プラトン
メイン州
ローリー
一方通行
世田谷区
兵士たち
兼ね備え
創価学会
取り込む
学制改革
恐ろしい
無線通信
##ライアンス
##レンブルク
North
エイリアン
ジェネラル
ジェフリー
ダーウィン
ニカラグア
入れ替わり
史上最年少
County
イベリア半島
エイベックス
クリエイター
ジョヴァンニ
トロンボーン
プロヴァンス
ベースボール
マーキュリー
女子サッカー
##レッドソックス
College
Tomatoes
プレイヤーキャラクター
##68
##PL
蝋
遙
##きり
##みれ
##シク
##ハナ
##モナ
##世田
##内容
##十二
##国寺
##水雷
##治療
##浩二
##物産
##韓国
##願い
##-17
##awa
Ka
TT
VO
かや
ぬい
もみ
ダニ
パク
三越
上顎
中書
主語
事案
佳作
個数
健闘
全焼
分館
口論
叩く
同母
国策
官能
寒さ
対地
小節
山県
峡谷
帰依
帰路
年前
康熙
彦根
従弟
抜く
接種
故事
散逸
松坂
模擬
清和
湧き
破裂
線区
繋い
翻弄
要所
誅殺
退避
造る
遊ん
遠州
降着
鞍上
願う
麻呂
##ましい
##ガング
##ザベト
##ランズ
##地理学
##報告書
##葉樹林
##ough
226
420
BIG
Che
sub
きっぷ
エリス
キリル
フェン
マグニ
ミトコ
ミニマ
ミール
メジロ
ヴィラ
中央区
中山道
交通局
共和制
同窓会
大企業
少数派
山手線
律令制
打楽器
来場者
概して
精神病
解剖学
販売店
開会式
関係性
静岡市
飛行船
高松市
高速化
鳴らし
##ダグラス
##ムービー
##ister
1770
1805
1809
Back
したがっ
ともども
アウェー
オルタナ
ギャップ
シュトラ
デザート
プライス
ペーパー
ホノルル
ホーエン
一般国道
中央委員
切り離し
参謀総長
取り調べ
引き下げ
日本法人
有価証券
東京高等
組み入れ
職業訓練
請け負っ
##市立図書館
class
ことごとく
インスリン
カメルーン
サンライズ
ブラームス
レッドブル
レポーター
ヴェルディ
元メンバー
自動販売機
##アーティスト
アナログ放送
ゲームボーイ
シャーロック
バドミントン
バークレー校
東京芸術大学
立方メートル
ミトコンドリア
チャイコフスキー
てんとう虫コミックス
##-7
勿
寓
斧
##うえ
##イリ
##エク
##ズー
##ノ島
##上の
##修道
##原線
##原郡
##客船
##山形
##徳川
##棋院
##演劇
##蕎麦
##電信
##ACT
##EMI
##arn
DV
NY
PD
WR
ざい
すく
クス
リボ
ロム
一挙
一郎
三陸
下面
今や
修飾
備後
元首
冷静
加重
南区
参道
四角
回生
土日
執事
堂々
壱岐
平時
店主
弘仁
快勝
恩赦
感受
慶尚
成年
接頭
掴み
換気
搬入
新入
新橋
昇降
暖房
本陣
板垣
殴り
水木
淀川
球体
直角
眠り
稜線
絶版
脱線
芝生
草津
藩校
親和
講堂
逆襲
阿賀
音域
龍造
##き出し
##アイス
##エンタ
##ケント
##ッジョ
##ニーク
##ハイン
##マーレ
##リスム
##ロング
##amil
163
640
75%
810
Ber
COL
Dig
sup
おかし
やまだ
やむを
アルテ
エキシ
グルー
サック
スズメ
スバル
テッサ
トッド
ポータ
リンチ
乗せる
事件後
事業主
五十嵐
住まい
大阪駅
奨励賞
差別化
引き金
悪天候
損なわ
機関誌
生化学
硫黄島
立たさ
競技者
終着駅
総じて
装甲車
誘導体
非合法
預かり
##ターソン
##ビュート
##マジック
##ility
1763
1817
Aust
Cast
Land
ウインド
カッセル
コンスタ
ソリスト
パウンド
レシーブ
一般公開
世論調査
優等列車
新聞記者
日本プロ
関西大学
##コロムビア
Saint
Steam
キログラム
キロワット
ケベック州
ジュリアン
ファントム
モノコック
ユリウス暦
三菱重工業
国家公務員
実行委員会
巻き起こし
##コミュニティ
##ヴィンスキー
##対空ミサイル
ノンステップ
ハードロック
ホームタウン
Service
トレードマーク
メインイベント
プランテーション
ヨーロッパ選手権
##オリンピック委員会
##フィギュアスケート選手権
##In
##MI
##NO
于
吏
渇
賊
##クォ
##シタ
##プア
##ムト
##利益
##原発
##外交
##工所
##技師
##援助
##注意
##盛り
##直線
##膜炎
##葛飾
##虐殺
##融合
##許可
##連携
##食い
##ITY
##enz
##omb
##omo
2%
Fr
Gi
Oh
So
bl
だれ
なで
よみ
サガ
ニキ
ビザ
ボケ
ルシ
一団
一対
万博
三大
不平
並木
何ら
何れ
共催
兵部
四輪
始末
小平
小諸
廃位
廃寺
惹き
戦勝
房総
打開
抱か
拮抗
支柱
日置
杉並
材木
残酷
民政
水原
沿う
洋上
混入
測る
港町
焼却
病状
移譲
空海
端緒
算術
腕前
自在
自爆
自白
自粛
英米
茶道
荒井
薦め
螺旋
製剤
詳述
造詣
連星
遵守
遺し
重役
##まとめ
##ザニア
##ザーブ
##ナッツ
##ネード
##ピスト
##低気圧
##性理論
##時間後
##生物質
##証明書
##rown
Bab
Que
Rac
Sum
WAR
pol
きれい
ゆうき
カッコ
ジュネ
デモン
フェイ
ブート
リップ
乗り物
意図的
授かっ
放送日
文学賞
曲がり
最低限
月刊誌
比叡山
無期限
縄張り
著作物
送受信
飲み物
##スタート
##スピード
##ライフル
##リエール
##ヴィエト
##工業大学
##野球連盟
1615
1796
1798
Hist
Jack
ふれあい
イデアル
ショパン
ドナウ川
パラレル
プロトン
ヴォルガ
中国地方
取締役会
大当たり
日本文学
武田信玄
湾岸戦争
王立協会
自主制作
読み上げ
運転免許
過去最高
サーサーン
ドジャース
ファシズム
ヴェーザー
夏の甲子園
持ち合わせ
文学研究科
##シュトラウス
Master
フェリックス
ポーランド語
ミリメートル
先行シングル
特別支援学校
##ローテーション
ていしゃじょう
コンチネンタル
ファイナリスト
代表取締役会長
日本コロムビア
Japanese
ノースカロライナ
ロンバルディア州
##JI
##Jr
##QU
ぺ
團
岐
暇
漕
熾
珪
篭
﨑
##ざす
##だか
##ちん
##ゴム
##サマ
##シロ
##チコ
##ハツ
##ピス
##リノ
##上昇
##保全
##台場
##新世
##暮れ
##条例
##毀損
##砂漠
##端末
##舞踊
##部品
##配置
##IDS
##elf
##irc
FD
こめ
すき
エヌ
セリ
マタ
ムン
ユタ
中年
二等
交尾
伸長
初動
助力
千島
国税
城代
塗っ
変態
大日
奏法
女装
孔子
小原
小浜
少子
就学
布陣
心霊
拝殿
拠っ
撃っ
政宗
数列
新発
明暦
本件
林道
森山
機運
櫻井
洗い
無実
狭隘
用具
町人
砲術
私設
稼ぐ
立証
絶た
続投
羽柴
船尾
通販
重厚
長井
防火
頭脳
顔料
馳せ
鶴田
##たけし
##たろう
##ひょう
##ません
##ポルド
##ポンプ
##マーン
##ラーフ
##リーク
##中央駅
##環状線
##選挙法
##ison
Adv
Gar
Let
WCW
car
gen
インペ
オスロ
ケーキ
ジュゼ
トリー
ヘルス
上回り
信濃国
初登板
励まし
原産地
合理化
国分寺
国文学
存在感
将軍家
工業化
引き続
持ち味
新会社
時刻表
榴弾砲
生える
生徒会
終止符
繁華街
苦しい
金沢市
龍造寺
##ニョーラ
##リアヌス
##ンドール
##海軍工廠
Pent
Year
ものまね
ケータイ
ダイアナ
バス事業
ファンド
マラリア
単位取得
地区優勝
日本文化
産業革命
社名変更
私立大学
積み上げ
軽便鉄道
野球選手
##コンテンツ
##シュミット
##ディッシュ
South
おそらくは
エタノール
デフォルト
ドイツ海軍
フォルクス
メイキング
ロゴマーク
地方裁判所
大東亜戦争
真珠湾攻撃
アイリッシュ
タッグチーム
プレッシャー
コミュニティー
センターバック
プロレスリング
Anniversary
##-3
##EX
##MM
##OO
##ja
′
肛
錫
##がな
##には
##の島
##オト
##ヒャ
##プソ
##ヤク
##ヶ島
##一つ
##信越
##力士
##味料
##木場
##江町
##虐待
##週目
##風土
##eck
##iga
##ope
##umb
##uth
IX
Ra
up
うめ
えり
おだ
なご
ジグ
セブ
ダグ
ハレ
ルナ
上村
下田
信玄
修得
創り
創世
北原
口実
名実
営み
図面
塗ら
壊し
大政
夭折
字形
家元
岸壁
巻末
常駐
幸い
心得
快楽
感性
扇動
拘ら
排斥
探る
敬遠
曲げ
歌川
毛色
沢山
災い
独ソ
球状
突い
組曲
結実
総局
羽生
腐食
致死
華麗
記入
誓う
誘惑
護送
賄賂
転封
鉄鉱
鉄骨
長打
零戦
黒竜
##アーン
##カサス
##カント
##フォア
##振興局
##首長国
##atic
##ello
##ouch
##over
009
316
4-1
AIR
Fin
HIV
NNN
づらい
わざと
エンタ
カザン
カラス
クレオ
シェイ
シンジ
タモリ
ビジャ
ブラウ
モンタ
ユタ州
不自由
事故死
代表曲
八重山
凱旋門
商学部
四川省
居場所
浜松市
自治権
診療所
転じる
農作物
迫撃砲
離着陸
頭蓋骨
##ットニー
##ティクス
##トーマス
##フェスト
##ムルーク
##ラッシュ
##朝日放送
##殺人事件
1573
1799
Jean
Real
はじまっ
ギヨーム
ザグレブ
シリコン
ダイヤル
フィルタ
フェルミ
ブルーリ
マヌエル
ミカエル
レーガン
中等学校
兵庫県立
取り壊し
外交政策
天武天皇
建設計画
知的財産
総理大臣
聖徳太子
部分集合
電子機器
##ograph
Fight
First
エンジェル
スクリプト
タイガース
デラックス
パスポート
ヘッセン州
メモリアル
入れ替わる
台湾総督府
放送終了後
立ち向かう
アメリカ代表
ギムナジウム
シーズンオフ
ライブツアー
太陽系外惑星
西ヨーロッパ
スーパーマリオ
ワイルドカード
##ホワイトソックス
アメリカンリーグ
ウェストミンスター
ポケットモンスター
プロバスケットボール
##BM
♪
做
揉
擦
會
糧
##オミ
##ゼイ
##ヤシ
##伝統
##修正
##出力
##合意
##川崎
##廃止
##星術
##権現
##発作
##相談
##組ん
##調整
##酋長
##靭帯
DH
PF
うさ
おや
かげ
げき
つぐ
つづ
ぶっ
わん
エト
オウ
キタ
ケロ
ハク
モダ
リラ
丞相
公称
写っ
別称
副長
包み
包装
北北
医院
口語
台座
史書
吉井
同大
商事
図鑑
場内
増進
大町
宮島
宴会
家柄
小金
巨匠
希薄
弾く
急襲
所収
排他
暗示
木版
枢軸
柔術
柳田
栄町
法規
流刑
版権
球面
生い
病弱
真に
禁煙
禁酒
答弁
精通
紛失
終生
義兄
蘇生
行幸
被覆
観世
討つ
試し
誓約
誘う
踊っ
送還
連座
連戦
長屋
関脇
闘病
頭痛
養蚕
##らせる
##クレオ
##テクト
##ニャー
##ネズミ
##ハロン
##ヒート
##マイク
##マスク
##メッセ
##ラクタ
##リータ
##ルコム
##ロメオ
##月革命
GEN
Hel
res
かから
かとう
ひみつ
もしも
キール
ギャラ
ゲルマ
スコー
チタン
デビル
ハイデ
ユヴェ
不時着
丘陵地
住宅街
共通語
冠番組
午前中
同盟軍
命名権
回転数
守護代
実力者
改訂版
本因坊
水蒸気
決勝点
聖公会
苫小牧
草分け
論理的
迎え撃
連邦軍
選挙戦
鳴き声
##ウェルズ
##ウォッチ
##プリント
##ランナー
##レクトリ
##知事選挙
1714
Batt
Long
pres
ship
だいがく
ウィリー
シボレー
スタニス
バンパー
ビザンツ
フィット
作詞作曲
呼び寄せ
従四位下
映画音楽
臨床試験
音楽大学
首位打者
##キャンパス
##ユニバース
うかがえる
アルベール
インドシナ
ネーミング
ノーベル賞
ローランド
中国国民党
客員研究員
引き受ける
アウトバーン
アルメニア人
アンソロジー
ウェリントン
コントローラ
サーサーン朝
チャリティー
テレビジョン
トゥールーズ
ユヴェントス
古代エジプト
弾道ミサイル
日本レコード
ソングライター
ビデオリサーチ
パーソナルコンピュータ
##ty
偲
渥
訛
##いる
##てき
##ぶれ
##ウド
##オイ
##カプ
##グサ
##グス
##ロサ
##台駅
##名所
##左打
##市大
##廃合
##漱石
##秀樹
##義務
##西武
##詫び
##谷駅
##迎え
##長野
##風呂
ال
しず
アズ
ウミ
スレ
ヨコ
リサ
一端
万能
中尾
乱闘
事物
先手
全会
公務
公約
内山
分流
前哨
地味
城塞
墓碑
奏し
家計
常緑
建久
形跡
惚れ
慌て
撤収
暴れ
東宮
校歌
江原
汲み
済州
火炎
火砲
特派
独創
由緒
病床
税制
荷役
被り
複葉
褒め
走塁
軍法
速報
邪悪
開基
頑丈
##なじみ
##アレク
##アレン
##ビーム
##マンガ
##ユダヤ
##ロニカ
##ロマン
##医薬品
##披露目
##海兵隊
##2000
##ures
183
214
301
680
Bay
FNN
Hal
JFA
Luc
PDF
Ray
mag
うけい
シュテ
ダイオ
ティモ
トリス
パント
ヒート
リリー
ワイオ
中国側
代表戦
反体制
国防軍
安倍晋
展望台
手榴弾
指定席
新古典
日の出
普通車
止まる
湖南省
無条件
生き方
英語名
被験者
試合数
##パソコン
##ブラッド
##ブレター
##ルスキー
##レーサー
##velop
1777
3500
Muse
お披露目
インテリ
イーグル
ウガンダ
スカラー
スタンス
スマイル
スロープ
タイムズ
ネバダ州
フェルト
フレディ
代表選手
内務大臣
取り立て
塗り替え
帝国大学
帝国議会
月刊少年
経済活動
##サイエンス
##テレビ小説
##レコーダー
##ングループ
##有形文化財
ありがとう
ジョイント
デビュー曲
バットマン
パラダイス
ミッチェル
ヴィクトル
大統領候補
投手コーチ
##ハンプシャー
##tainment
グリーンランド
フリーエージェント
福島第一原子力発電所
##RY
兜
弊
弧
掻
玲
韋
##もら
##エヌ
##サロ
##セク
##バト
##ヘム
##上院
##周期
##商工
##大帝
##天神
##料金
##案内
##瀬戸
##質量
##車輛
##部町
##隆寺
##AMP
##IPS
##ITE
##mon
-(
Sl
おけ
こぎ
イヤ
チア
トマ
ハッ
ヒエ
ブカ
プチ
人脈
併結
別物
刺客
北へ
召還
嘔吐
外洋
多年
太宗
就業
山車
川田
師管
干潟
店長
張る
往年
感知
慣用
手軽
暴風
服従
村名
村民
東條
栗原
根元
根幹
格式
欠損
歪み
死神
水辺
河畔
渡部
片手
瑞穂
甲冑
発火
白星
石器
空力
細か
美学
能楽
自決
蔵人
親指
財宝
貸付
資質
赤羽
転機
追討
重鎮
開祖
関口
雑貨
電位
黒木
##アワー
##アーク
##セール
##ダクト
##ニアス
##ファク
##ホルン
##ライツ
##レスコ
##adem
"")
008
430
ART
DEC
DOS
Die
End
NHL
Und
min
アロン
カーク
クルト
ナゴヤ
パーカ
上水道
作業員
典型的
出遅れ
効果音
効率化
印象派
原材料
同位体
囚われ
多方面
婿養子
戦闘力
捨てる
歌謡曲
渋谷区
渡り歩
生き物
神学者
荒らし
購入者
遅れる
##しゅけん
##キングス
##ディアス
##ノワール
##整理事業
##OKAWA
##ender
##witch
1785
BLUE
Book
Dist
Prot
SPEC
それなり
ウェイト
コバルト
スタンプ
セレクト
トロリー
ピッコロ
営業時間
教養学部
東京国立
構成要素
死刑判決
気に入ら
追い出さ
阪急電鉄
難しかっ
##クリントン
##スタリング
##プレイング
##ロビンソン
##ournal
Smith
オルレアン
クォーター
クローザー
マムルーク
ロビンソン
川崎重工業
##バレーボール
##フリードリヒ
##acritic
Commun
アジア選手権
アメリカ大陸

##の
##、
##に
##た
##。
##る
##は
##ー
##と
##を
##し
##で
##て
##い
##が
##ン
##1
##れ
##な
##年
##0
##2
##ス
##ル
##っ
##ら
##か
##・
##(
##)
##あ
##さ
##ト
##り
##イ
##リ
##も
##9
##こ
##ア
##す
##ラ
##日
##ッ
##ク
##う
##3
##よ
##ま
##ド
##月
##シ
##「
##」
##5
##4
##8
##大
##タ
##フ
##く
##め
##ロ
##レ
##6
##7
##ジ
##e
##き
##人
##カ
##本
##そ
##け
##学
##国
##ィ
##a
##テ
##マ
##ム
##プ
##お
##中
##や
##行
##グ
##バ
##一
##デ
##つ
##i
##o
##後
##ど
##コ
##オ
##出
##メ
##地
##わ
##会
##時
##r
##え
##ウ
##n
##部
##合
##ニ
##チ
##ュ
##上
##発
##作
##用
##ブ
##サ
##戦
##ャ
##ナ
##t
##だ
##『
##』
##場
##エ
##代
##同
##-
##的
##ん
##生
##A
##キ
##ビ
##者
##ズ
##名
##S
##間
##事
##成
##ち
##s
##市
##パ
##定
##ェ
##ダ
##l
##分
##開
##長
##C
##m
##ミ
##子
##入
##高
##業
##動
##立
##自
##手
##社
##内
##み
##前
##現
##第
##東
##方
##せ
##主
##道
##"
##下
##家
##ば
##以
##ョ
##対
##体
##通
##当
##設
##在
##所
##ベ
##じ
##セ
##初
##世
##軍
##ハ
##機
##化
##T
##最
##車
##山
##へ
##.
##I
##物
##新
##全
##モ
##多
##目
##表
##M
##c
##ツ
##関
##ネ
##u
##線
##数
##選
##性
##E
##画
##び
##ガ
##記
##D
##見
##田
##ソ
##法
##県
##公
##位
##小
##P
##ヴ
##力
##d
##連
##教
##ポ
##R
##B
##実
##ボ
##h
##度
##期
##和
##川
##文
##回
##O
##N
##校
##ず
##語
##明
##ァ
##北
##理
##式
##ピ
##ノ
##政
##平
##海
##ワ
##F
##使
##ケ
##民
##組
##加
##員
##島
##受
##送
##置
##勝
##外
##結
##品
##制
##放
##務
##区
##ギ
##元
##特
##形
##野
##点
##水
##活
##女
##西
##取
##L
##経
##治
##,
##要
##能
##町
##原
##京
##神
##番
##持
##州
##書
##三
##ペ
##演
##ほ
##駅
##正
##続
##げ
##面
##共
##言
##南
##王
##G
##運
##来
##指
##界
##ホ
##議
##電
##g
##際
##ザ
##気
##身
##売
##ォ
##有
##都
##任
##金
##次
##得
##ゴ
##ゲ
##進
##団
##号
##約
##付
##知
##近
##k
##利
##始
##変
##意
##H
##空
##重
##p
##:
##決
##二
##不
##向
##流
##等
##隊
##権
##計
##産
##建
##集
##造
##曲
##録
##y
##楽
##心
##映
##ろ
##優
##移
##基
##域
##ヤ
##々
##保
##音
##信
##V
##路
##参
##終
##存
##べ
##天
##製
##呼
##K
##義
##彼
##台
##様
##他
##工
##ヒ
##改
##交
##型
##院
##解
##鉄
##系
##W
##属
##U
##相
##村
##種
##む
##口
##称
##再
##果
##役
##広
##両
##別
##賞
##統
##収
##無
##撃
##支
##直
##転
##士
##引
##f
##可
##古
##備
##少
##J
##側
##登
##試
##b
##安
##科
##死
##構
##説
##調
##総
##編
##昭
##強
##状
##術
##報
##木
##配
##常
##石
##研
##命
##府
##営
##起
##格
##馬
##城
##降
##官
##ユ
##伝
##題
##門
##郡
##ぶ
##兵
##領
##反
##装
##館
##由
##退
##究
##党
##先
##球
##局
##万
##着
##各
##版
##判
##半
##認
##示
##/
##男
##問
##族
##止
##ヨ
##朝
##考
##ヘ
##技
##住
##打
##論
##土
##艦
##太
##類
##話
##歌
##応
##屋
##施
##乗
##育
##史
##載
##紀
##料
##武
##争
##挙
##規
##管
##陸
##量
##v
##店
##派
##師
##字
##限
##異
##宮
##予
##光
##含
##達
##戸
##離
##残
##ゼ
##級
##継
##接
##園
##列
##条
##例
##投
##過
##与
##率
##影
##件
##船
##親
##導
##独
##資
##色
##観
##ょ
##美
##込
##攻
##味
##器
##岡
##頭
##更
##監
##催
##及
##提
##敗
##述
##切
##査
##周
##協
##確
##復
##防
##督
##速
##英
##単
##質
##情
##米
##井
##松
##競
##展
##害
##態
##係
##食
##ご
##星
##衆
##容
##真
##寺
##必
##衛
##w
##氏
##航
##落
##ひ
##橋
##!
##職
##準
##完
##増
##江
##郎
##供
##験
##父
##修
##素
##葉
##歳
##商
##福
##帝
##座
##藤
##走
##白
##=
##良
##阪
##旧
##般
##愛
##専
##将
##張
##従
##皇
##勢
##風
##担
##ぐ
##図
##護
##比
##失
##去
##思
##価
##十
##急
##司
##帰
##評
##程
##追
##歴
##委
##告
##%
##港
##ね
##河
##響
##念
##末
##ぎ
##母
##個
##就
##断
##籍
##象
##帯
##X
##室
##洋
##感
##足
##谷
##円
##済
##御
##守
##首
##破
##非
##仕
##殺
##客
##省
##助
##創
##企
##採
##令
##今
##補
##渡
##崎
##佐
##頃
##劇
##境
##四
##翌
##授
##低
##視
##飛
##廃
##Y
##割
##細
##了
##づ
##ゆ
##消
##積
##火
##病
##ヌ
##標
##千
##獲
##ぞ
##差
##想
##除
##芸
##検
##卒
##吉
##求
##横
##医
##模
##難
##ゥ
##宗
##株
##闘
##築
##描
##央
##換
##階
##然
##推
##好
##夫
##津
##像
##警
##段
##源
##波
##青
##販
##整
##ぼ
##織
##満
##声
##案
##博
##援
##興
##右
##銀
##辺
##諸
##働
##極
##聞
##久
##根
##負
##察
##農
##花
##環
##遺
##功
##左
##留
##五
##証
##伊
##八
##材
##複
##著
##幕
##拠
##植
##聖
##効
##街
##算
##板
##黒
##囲
##舞
##減
##藩
##策
##毎
##弾
##処
##刊
##介
##居
##伴
##端
##誌
##何
##輸
##違
##圧
##射
##契
##深
##薬
##砲
##赤
##岸
##写
##宇
##悪
##清
##婚
##弟
##越
##突
##群
##裁
##徳
##尾
##x
##浜
##席
##奏
##短
##徴
##沢
##未
##振
##旅
##財
##略
##富
##週
##盟
##林
##蔵
##巻
##習
##若
##春
##併
##寄
##臣
##跡
##永
##亡
##歩
##ふ
##抗
##養
##角
##注
##超
##故
##為
##ゃ
##停
##夜
##望
##森
##章
##乱
##返
##照
##延
##ゅ
##読
##曜
##早
##甲
##児
##祭
##堂
##枚
##労
##盤
##陽
##岩
##躍
##値
##識
##因
##給
##温
##測
##捕
##湾
##友
##ざ
##豊
##承
##精
##昇
##息
##候
##秋
##績
##被
##z
##戻
##志
##布
##許
##療
##酸
##〜
##雑
##密
##揮
##費
##紙
##革
##順
##九
##講
##遠
##至
##壊
##適
##節
##典
##賀
##秀
##扱
##便
##占
##倉
##熱
##替
##並
##丸
##頼
##拡
##ゾ
##邦
##搭
##兄
##普
##待
##景
##韓
##ヶ
##~
##盛
##層
##脱
##散
##庫
##宅
##血
##幅
##途
##華
##駆
##項
##抜
##具
##課
##私
##障
##宝
##詞
##雄
##漫
##刑
##爆
##妻
##夏
##丁
##玉
##絶
##休
##香
##則
##掲
##激
##庁
##貨
##敵
##宣
##副
##泉
##'
##執
##傷
##鮮
##訪
##絵
##沿
##襲
##練
##輪
##奈
##撮
##池
##易
##況
##徒
##固
##塁
##坂
##郷
##Z
##服
##宿
##似
##軽
##姿
##覚
##罪
##操
##迎
##滅
##献
##鳥
##之
##背
##印
##携
##貴
##症
##締
##訳
##掛
##倒
##&
##険
##混
##批
##魔
##奪
##康
##草
##娘
##閉
##兼
##舎
##請
##禁
##健
##百
##逆
##幹
##災
##弁
##律
##巡
##審
##仏
##六
##票
##筆
##羽
##宙
##祖
##額
##逃
##脚
##老
##湖
##忠
##樹
##探
##里
##勤
##仮
##買
##救
##敷
##範
##静
##互
##没
##討
##較
##欧
##騎
##閣
##維
##浦
##危
##陣
##遊
##圏
##距
##骨
##余
##善
##隣
##栄
##訴
##辞
##沖
##均
##震
##殿
##鹿
##否
##_
##岐
##銃
##税
##慶
##談
##億
##札
##憲
##焼
##犯
##毛
##枠
##胞
##孫
##爵
##幼
##油
##露
##黄
##核
##瀬
##既
##欠
##仲
##折
##詳
##漢
##魚
##依
##庭
##納
##”
##臨
##侵
##聴
##俳
##肉
##詩
##塚
##片
##遣
##巨
##竹
##到
##裏
##疑
##損
##避
##七
##潜
##願
##刻
##酒
##唱
##招
##染
##伯
##覧
##紹
##暗
##撤
##縮
##純
##+
##押
##払
##房
##冷
##Q
##伸
##喜
##塩
##季
##唯
##択
##惑
##触
##幸
##熊
##申
##券
##傾
##礼
##舗
##軌
##厳
##譲
##貢
##飾
##暴
##縁
##架
##翼
##苦
##免
##燃
##益
##還
##繰
##壁
##駐
##吸
##液
##牧
##阿
##誘
##征
##“
##砂
##ぜ
##>
##儀
##摘
##麻
##秒
##困
##排
##丘
##旗
##雷
##概
##雲
##仙
##奥
##却
##融
##誕
##遅
##<
##濃
##仁
##繁
##怪
##君
##皮
##隠
##龍
##封
##倍
##縄
##我
##亜
##冬
##崩
##霊
##j
##釈
##訓
##→
##底
##茶
##恐
##秘
##弱
##鉱
##恵
##答
##患
##稲
##包
##冠
##炭
##隆
##購
##虫
##須
##誉
##束
##筋
##妹
##荷
##簡
##致
##緑
##顔
##即
##童
##隻
##恋
##責
##竜
##弘
##雪
##抱
##雨
##哲
##摩
##析
##厚
##午
##鎮
##軸
##暦
##絡
##双
##寛
##奉
##潟
##衝
##荒
##抑
##ぬ
##挑
##沈
##渉
##墓
##彦
##床
##吹
##充
##針
##伏
##募
##矢
##踏
##齢
##衣
##己
##脈
##浅
##覇
##鎖
##署
##誤
##飲
##塔
##貫
##刺
##柄
##賛
##埋
##掘
##希
##剤
##姉
##礎
##浮
##夢
##葬
##陥
##剣
##沼
##犬
##託
##脳
##狭
##?
##杉
##迫
##削
##謀
##綱
##墳
##豪
##窓
##轄
##縦
##鶴
##婦
##頂
##奇
##逐
##径
##盗
##快
##索
##序
##緒
##郵
##姓
##尊
##稿
##笑
##鈴
##歯
##牛
##炎
##菌
##威
##殊
##干
##網
##裂
##那
##棄
##拒
##桜
##微
##堀
##艇
##雇
##慮
##茂
##械
##鏡
##埼
##寿
##磁
##杯
##敬
##溶
##銅
##漁
##廷
##暮
##李
##捜
##柔
##診
##借
##才
##郊
##僚
##姫
##翻
##智
##×
##鎌
##芝
##貞
##陰
##顧
##仰
##湯
##逮
##耐
##輝
##灯
##俗
##幌
##※
##滞
##毒
##夕
##羅
##乳
##殖
##眼
##柳
##腹
##該
##謝
##抵
##贈
##隔
##勇
##拝
##氷
##裕
##揚
##遂
##丹
##滑
##唐
##届
##飯
##腕
##侯
##括
##詰
##禄
##戒
##勧
##痛
##幾
##塗
##獣
##覆
##鬼
##蒸
##卵
##鳴
##培
##顕
##尚
##劉
##岳
##貸
##晴
##箱
##潮
##刀
##握
##渋
##]
##q
##亀
##荘
##慣
##孝
##往
##柱
##[
##繋
##喫
##拓
##彩
##旬
##洗
##徐
##摂
##昌
##嘉
##賃
##也
##穴
##奴
##如
##緯
##傘
##債
##披
##恒
##償
##筒
##硬
##菱
##阜
##紅
##幡
##陵
##薄
##鋼
##梅
##俊
##句
##玄
##鑑
##棋
##祝
##浴
##又
##枝
##偽
##弦
##叙
##澤
##僧
##飼
##貿
##泊
##随
##誰
##促
##勲
##塞
##隷
##尉
##怒
##冒
##狙
##碑
##弥
##斜
##洞
##嫌
##é
##斎
##輩
##尽
##緊
##斉
##頻
##豆
##看
##趣
##珍
##乾
##擁
##卿
##騒
##煙
##垣
##踊
##梨
##梁
###
##遇
##臓
##奨
##畑
##緩
##徹
##需
##–
##迷
##欲
##偵
##酵
##糖
##箇
##獄
##笠
##糸
##附
##駒
##狩
##妙
##衰
##誠
##旨
##紋
##菊
##譜
##泰
##添
##呂
##阻
##巣
##曹
##冊
##刷
##庄
##滝
##浄
##紛
##透
##悲
##挟
##旋
##晩
##貧
##粉
##穂
##塾
##栽
##稼
##浪
##寝
##峰
##°
##邸
##彰
##晶
##紫
##呉
##ぱ
##筑
##〉
##努
##〈
##脇
##○
##膜
##憶
##誇
##撲
##罰
##髪
##茨
##享
##粒
##菜
##肥
##陳
##宰
##雅
##麗
##媒
##ぽ
##棟
##傍
##熟
##扉
##恩
##遭
##薦
##肩
##淡
##懸
##函
##銘
##銭
##眠
##棒
##袋
##挿
##彫
##符
##芳
##控
##汚
##昼
##賢
##伐
##寒
##胸
##祥
##磨
##祀
##灰
##捨
##妃
##;
##遷
##后
##脂
##垂
##召
##耳
##噴
##励
##峡
##蓮
##薩
##堅
##幣
##虎
##勃
##洲
##葛
##赴
##浩
##掃
##劣
##桃
##預
##脅
##蘇
##涯
##逸
##栗
##湿
##拳
##侍
##軒
##偶
##敏
##卓
##訟
##剛
##幻
##虐
##貯
##☆
##屈
##帳
##悩
##抽
##驚
##坊
##疾
##墜
##―
##狂
##曽
##輔
##旦
##峠
##甘
##拘
##珠
##畿
##忍
##吾
##祉
##措
##軟
##泳
##旭
##謡
##虜
##偏
##ぷ
##亭
##蓄
##崇
##沙
##朱
##啓
##孤
##浸
##皆
##魂
##勅
##陶
##匠
##菓
##桁
##貝
##酷
##賊
##洪
##祈
##稚
##溝
##晋
##栃
##菅
##殻
##犠
##辛
##掌
##妖
##祐
##蘭
##朗
##肢
##宋
##砦
##尋
##滋
##庶
##猫
##寧
##懐
##猛
##鋭
##捉
##耕
##悟
##鼻
##咲
##柏
##瞬
##堤
##斐
##乃
##暫
##膨
##准
##壇
##桂
##呈
##渓
##竣
##烈
##舟
##麦
##桑
##駿
##牲
##搬
##鷹
##魅
##昔
##蒲
##暖
##炉
##郭
##慎
##怖
##倫
##謎
##牡
##盾
##猟
##硫
##衡
##茎
##叔
##魏
##尻
##克
##粋
##弓
##牽
##訂
##嶋
##肺
##寸
##舶
##腰
##揃
##椎
##唆
##妨
##揺
##辰
##閲
##僕
##秦
##腫
##勉
##腸
##昆
##秩
##誓
##鍵
##丈
##磐
##|
##宜
##尼
##虚
##釣
##宏
##柴
##剰
##癌
##履
##斬
##瑞
##盆
##腐
##尿
##》
##媛
##勘
##夷
##篇
##禅
##蓋
##但
##蜂
##錦
##《
##釜
##屯
##嫡
##枢
##戯
##胴
##泥
##孔
##琉
##畜
##邪
##嵐
##乙
##纂
##肝
##妊
##尺
##慢
##α
##斗
##粘
##凍
##班
##慰
##寮
##歓
##繊
##忘
##國
##乏
##疎
##兆
##慈
##桐
##籠
##匹
##践
##燥
##絞
##綿
##麓
##哨
##稀
##扇
##壌
##芽
##懲
##播
##喪
##楊
##僅
##賜
##佳
##朽
##涼
##篠
##琴
##疫
##循
##潤
##翔
##穏
##洛
##漏
##羊
##閥
##黙
##霧
##*
##累
##雌
##鼓
##偉
##磯
##礁
##褐
##鉛
##剥
##巧
##膚
##敢
##粛
##跳
##雀
##於
##吐
##讃
##慕
##穀
##嗣
##堺
##趙
##厩
##菩
##岬
##叩
##奮
##澄
##擬
##醸
##猿
##亮
##伎
##拍
##瓦
##胡
##貼
##嫁
##淳
##庵
##焦
##隅
##苗
##闇
##惨
##萩
##甥
##据
##猪
##蛇
##鳳
##鋳
##零
##應
##淵
##漠
##廊
##簿
##胆
##遮
##帽
##糧
##舷
##幽
##碁
##謙
##帥
##泣
##臭
##是
##刈
##綾
##蹴
##棚
##呪
##殆
##諾
##砕
##髄
##汽
##諏
##敦
##倶
##雰
##欄
##牝
##窮
##遡
##綴
##傑
##賠
##鐘
##凝
##疲
##ぴ
##涙
##拾
##壮
##忌
##噂
##膝
##坪
##槍
##烏
##隈
##嶺
##楼
##汎
##篤
##酔
##鞍
##鞭
##隙
##弧
##把
##缶
##肖
##嘆
##擢
##妥
##賭
##囚
##俺
##宛
##蒙
##刃
##恭
##辻
##勾
##遼
##顎
##廠
##鍋
##墨
##錯
##娠
##倣
##堆
##湘
##儒
##填
##煮
##矛
##裸
##輌
##叫
##樽
##諭
##淀
##酬
##鴨
##窟
##豚
##餌
##唄
##捧
##稽
##椅
##朴
##哉
##斑
##橘
##鶏
##狼
##袖
##β
##鍛
##靖
##棲
##藍
##汁
##吊
##靴
##胎
##舌
##帆
##廻
##俵
##痕
##燕
##暇
##胤
##臼
##崖
##瓶
##戚
##畳
##骸
##ヵ
##芦
##跨
##戴
##縛
##肪
##樺
##曾
##塊
##玩
##詠
##貌
##遍
##揆
##楕
##腺
##ü
##悼
##鯨
##鳩
##癒
##藻
##凶
##股
##廉
##聘
##脊
##蒋
##鷲
##á
##潰
##逝
##錬
##曳
##楠
##駄
##陀
##坑
##漂
##腎
##挺
##頑
##а
##抹
##瘍
##凱
##粧
##韻
##飢
##挫
##粗
##憧
##詣
##嚢
##湧
##裔
##宴
##笹
##條
##欺
##枯
##畠
##麺
##倭
##牟
##凡
##藝
##】
##【
##圭
##鰭
##窒
##牙
##喚
##潔
##辱
##槻
##汲
##綻
##胃
##鱗
##俣
##婿
##廟
##惜
##姻
##扶
##哀
##頓
##慌
##吏
##匿
##\
##ā
##甚
##泌
##笛
##肌
##晃
##湊
##擦
##褒
##о
##紡
##萌
##喧
##尖
##賄
##惹
##袁
##昨
##詐
##赦
##昧
##睦
##租
##馴
##奔
##憂
##獅
##迅
##曰
##ヲ
##遽
##棺
##爪
##迦
##騰
##{
##杜
##枕
##槽
##塵
##殴
##遥
##姦
##悠
##惧
##邑
##學
##掴
##漬
##睡
##窪
##薫
##霞
##儲
##叡
##毅
##讐
##惣
##拶
##挨
##穫
##牌
##}
##−
##叶
##悔
##★
##嘱
##榴
##耗
##侶
##聡
##拐
##梶
##灘
##彗
##憎
##溜
##茅
##鄭
##泡
##舵
##苑
##酢
##懇
##卸
##愚
##撰
##暁
##汗
##渕
##凌
##憩
##腔
##莫
##飽
##樋
##祇
##ä
##伽
##諦
##и
##庇
##恥
##桓
##灌
##辿
##ó
##暑
##堰
##’
##縫
##栖
##殉
##錐
##恨
##巴
##拉
##哺
##眺
##絹
##撫
##醐
##醍
##漆
##‐
##@
##丞
##卑
##沸
##黎
##í
##坦
##窯
##抄
##皿
##鉢
##俸
##斯
##盲
##肯
##醒
##ö
##ヂ
##畔
##賑
##蝶
##鐵
##嘩
##峯
##廣
##耶
##μ
##圓
##熙
##ا
##亘
##蕭
##虹
##巳
##梱
##諮
##串
##蛍
##嘘
##諱
##爾
##脆
##冶
##娯
##牢
##猶
##蝦
##輿
##冥
##曖
##渦
##稜
##纏
##楚
##粟
##棘
##濁
##〔
##寅
##喰
##箕
##閏
##徽
##萬
##閑
##歪
##蒼
##〇
##鴻
##朋
##貰
##〕
##憑
##瑠
##餓
##濱
##帖
##悦
##紳
##焉
##癖
##魯
##紐
##寵
##翅
##е
##剖
##忙
##怠
##ぁ
##隋
##н
##蜜
##云
##狗
##盧
##糾
##膳
##董
##鈍
##唇
##或
##痺
##逢
##榎
##醤
##濫
##溢
##頁
##壺
##杖
##欽
##隼
##捻
##硝
##翁
##肘
##詔
##桶
##荻
##嶽
##汐
##瞭
##綬
##舘
##栓
##扮
##婆
##梓
##餅
##ぺ
##晒
##頸
##凄
##杵
##琵
##鬱
##壱
##琶
##蛮
##謳
##р
##仇
##噛
##迂
##騨
##柵
##彙
##葵
##蔑
##于
##壕
##憤
##眞
##襄
##傭
##葺
##叉
##峙
##è
##璧
##諜
##霜
##柿
##汰
##罹
##蔽
##乞
##其
##弊
##擲
##狐
##祷
##陪
##麟
##謁
##尹
##蚕
##佑
##拷
##瞳
##糞
##譚
##滴
##仔
##杏
##賦
##喉
##梗
##渠
##奄
##惟
##渇
##芥
##賓
##輛
##叱
##崔
##咸
##杭
##伺
##筐
##錠
##鵜
##—
##戊
##漸
##ぃ
##娼
##嬉
##曇
##鎧
##ヅ
##冗
##縞
##寂
##巌
##碧
##諫
##釧
##紗
##蜀
##隕
##凸
##с
##堕
##繕
##遵
##妄
##斥
##璃
##祠
##叢
##宕
##峨
##矩
##喩
##庸
##弔
##瀧
##侮
##裾
##△
##嬢
##в
##襟
##雛
##鵬
##堪
##墾
##慧
##燈
##匂
##櫻
##炊
##珂
##礫
##勒
##扁
##聯
##$
##ゞ
##埴
##吟
##椿
##罠
##苫
##鍾
##〒
##絆
##喝
##壬
##濠
##凹
##只
##噌
##屏
##櫛
##溺
##漑
##苻
##蔡
##踪
##團
##逓
##馳
##к
##妬
##姪
##朔
##煉
##毘
##瀕
##л
##巫
##罷
##胚
##鄧
##檀
##馮
##騙
##玲
##窺
##謹
##崗
##跋
##嵯
##款
##浙
##煽
##厨
##氾
##錫
##寡
##櫓
##郁
##ل
##冨
##嵩
##挽
##呑
##埠
##螺
##揶
##毀
##荊
##蔭
##т
##亨
##坐
##揄
##紺
##蛋
##蹄
##陛
##•
##曝
##罵
##嗜
##揖
##芯
##蕃
##靭
##楯
##汝
##甫
##禰
##饉
##厄
##孵
##矯
##窃
##苛
##薙
##采
##ぇ
##孟
##峻
##汪
##蔓
##此
##雍
##渤
##眉
##Ζ
##叛
##痴
##誅
##鋒
##鷺
##緻
##·
##允
##嶼
##淮
##▲
##宍
##麹
##吻
##捷
##搾
##梵
##淑
##膠
##机
##檜
##瞑
##站
##駕
##囃
##堵
##殷
##轟
##髭
##弄
##榜
##麿
##匡
##醜
##釘
##晦
##煎
##訛
##ī
##怨
##喋
##惚
##賈
##š
##俯
##升
##妓
##拭
##沃
##爬
##鞘
##伍
##做
##墟
##攘
##疹
##苔
##閃
##噺
##堡
##寇
##諡
##─
##梯
##爽
##篭
##詮
##鋸
##撒
##昂
##濡
##芋
##⇒
##摺
##榊
##γ
##冪
##捏
##莉
##雁
##弐
##斧
##昏
##桟
##疇
##衙
##嫉
##彷
##樫
##矮
##腿
##轢
##陝
##ç
##♪
##會
##翠
##蕉
##妾
##覗
##鉾
##●
##且
##傅
##夭
##魁
##洩
##耆
##薇
##ū
##兜
##曼
##禎
##稔
##竪
##豫
##侠
##斡
##渾
##爺
##而
##芭
##蟹
##σ
##冑
##壽
##寓
##榛
##按
##痢
##邊
##巾
##殲
##煩
##薔
##薨
##劾
##皐
##葦
##裳
##亥
##剃
##嘴
##蘆
##鍼
##頒
##à
##兎
##綺
##濯
##禍
##荼
##這
##卯
##旺
##漕
##鮎
##า
##堯
##煕
##珪
##蹟
##某
##喬
##瓜
##迭
##′
##傀
##怯
##掻
##痘
##腱
##諧
##鹵
##儡
##塹
##焚
##窩
##肋
##遙
##姜
##弼
##彭
##璋
##繍
##聚
##莢
##蝋
##贅
##餐
##僑
##沌
##渚
##臥
##厥
##娶
##橙
##炸
##薪
##彌
##銚
##閻
##隘
##丼
##匈
##址
##鼠
##ε
##卜
##膏
##膵
##艶
##萼
##姚
##拿
##穿
##韋
##鰓
##﨑
##刹
##泄
##艤
##ن
##躇
##躊
##ı
##拗
##虞
##裴
##熾
##詫
##ú
##丙
##嗅
##嘔
##湛
##疆
##飴
##∞
##塀
##拮
##槌
##箔
##肛
##遜
##鯉
##д
##冀
##喘
##盃
##衷
##贄
##勿
##婁
##彬
##揉
##楢
##碩
##縣
##蕎
##虔
##逗
##邱
##酋
##閘
##π
##م
##嘗
##梢
##楓
##ر
##咽
##淫
##疏
##荏
##É
##慨
##洒
##漱
##炒
##錨
##δ
##冤
##嵌
##弩
##渥
##玖
##肇
##萎
##謂
##賂
##呆
##奢
##廿
##砥
##竿
##耀
##蕩
##豹
##φ
##嘲
##屑
##捗
##曙
##箸
##蝕
##ي
##偲
##灸
##酪
##阮
##鴎
##齋
##佛
##戮
##穆
##藪
##軋
##邇
##錘
##و
##掩
##篆
##紆
##翰
##遁
##鉤
##實
##愕
##紘
##萱
##袴
##鼎
##ß
##暢
##濾
##琢
##祓
##筈
##范
##蓬
##藁
##髙
##脩
##芹
##賤
##±
##ñ
##λ
##ω
##■
##咎
##塑
##嬰
##橿
##耽
##葡
##逼
##饗
##ร
##套
##懿
##攣
##茜
##邉
##酎
##^
##â
##č
##น
##掟
##柚
##濤
##痩
##穣
##絨
##綜
##麾
##й
##祢
##鸞
##θ
##□
##ぢ
##ゐ
##傳
##畝
##竈
##羌
##釉
##閔
##Δ
##倹
##厭
##宦
##庚
##戎
##甕
##與
##苞
##蒐
##頚
##鮫
##哈
##嚇
##愁
##愉
##斤
##浚
##畏
##稙
##靱
##冴
##壷
##撥
##溥
##煌
##璽
##臀
##舜
##蚊
##韮
##頬
##馨
##ć
##姑
##彿
##犀
##珊
##羨
##茉
##茹
##躯
##ō
##د
##嚆
##媚
##岑
##痙
##穎
##粕
##錆
##閤
##м
##у
##佩
##幇
##擾
##槇
##欣
##祚
##臆
##芙
##薛
##辣
##鯖
##僭
##圀
##垢
##拙
##潭
##蒔
##訃
##麒
##煥
##聾
##趾
##蹊
##鋏
##埔
##憐
##柑
##滸
##穢
##簾
##鍬
##鹸
##ب
##‘
##凪
##屠
##漿
##瑚
##禽
##ρ
##С
##≒
##宥
##捌
##琳
##蕊
##讒
##潘
##衍
##鑽
##丑
##來
##凰
##咬
##唾
##涌
##猥
##睨
##箏
##迄
##г
##咳
##圳
##狸
##ο
##卦
##宵
##帛
##榮
##瘤
##竇
##糠
##繭
##莱
##鄴
##鰐
##廓
##淘
##瀋
##砺
##碓
##簒
##苅
##菖
##蓉
##蕨
##訊
##∈
##并
##掠
##牒
##註
##諒
##證
##頌
##ô
##κ
##兗
##凛
##荀
##蛭
##蜘
##鉉
##隧
##霖
##饅
##τ
##ย
##些
##厘
##弛
##游
##蔚
##袂
##鯛
##Ö
##ा
##姶
##彪
##惠
##枡
##棍
##槃
##籾
##萄
##酌
##顆
##ν
##塘
##狛
##緋
##膿
##蟻
##裟
##諌
##◎
##亢
##巷
##廬
##筏
##銑
##隴
##靡
##顛
##Ω
##ч
##♥
##什
##傲
##冲
##囁
##楔
##涅
##燻
##瓊
##蛛
##ē
##乖
##桿
##檎
##碗
##綏
##讀
##貪
##Σ
##Б
##佃
##掾
##糊
##絢
##艘
##鍮
##鮭
##ã
##ь
##я
##ว
##悉
##椒
##瑛
##秤
##屍
##恪
##憾
##抒
##旱
##樟
##畷
##禹
##錮
##鍔
##霍
##饒
##魃
##ы
##ی
##柊
##毯
##竄
##腋
##藏
##輻
##鞠
##«
##♡
##尤
##旛
##疼
##薗
##誹
##謗
##謬
##贋
##迹
##韶
##س
##อ
##撹
##桔
##梧
##渭
##瘡
##祟
##稷
##舒
##莽
##蜷
##邁
##酉
##М
##ت
##र
##⇔
##凧
##圃
##姥
##巽
##恣
##燭
##瑜
##竺
##糎
##輯
##驃
##髑
##б
##ก
##ง
##ม
##ส
##徨
##忽
##樊
##沫
##磔
##蟄
##袈
##誦
##鏑
##髏
##»
##ˈ
##́
##п
##ヱ
##冉
##奠
##彅
##托
##捲
##攪
##槙
##櫃
##甑
##痒
##祁
##稗
##脛
##臧
##輜
##邵
##ø
##◆
##ゝ
##仄
##俟
##匁
##吠
##崑
##椀
##欅
##熹
##爛
##當
##祗
##閾
##ł
##ə
##ς
##ぅ
##攀
##椋
##檣
##檻
##漣
##獨
##疋
##疱
##笏
##誼
##贖
##鞆
##侑
##吃
##咄
##婢
##徊
##徘
##楡
##毫
##瀑
##煤
##燐
##羲
##芒
##蛙
##η
##ι
##‰
##侃
##埃
##悶
##斂
##暉
##糟
##號
##衞
##趨
##å
##А
